{
  "version": "1.0",
  "truncation": null,
  "padding": null,
  "added_tokens": [
    {
      "id": 0,
      "content": "[UNK]",
      "single_word": false,
      "lstrip": false,
      "rstrip": false,
      "normalized": false,
      "special": true
    }
  ],
  "normalizer": null,
  "pre_tokenizer": {
    "type": "ByteLevel",
    "add_prefix_space": true,
    "trim_offsets": true,
    "use_regex": true
  },
  "post_processor": null,
  "decoder": {
    "type": "ByteLevel",
    "add_prefix_space": true,
    "trim_offsets": true,
    "use_regex": true
  },
  "model": {
    "type": "BPE",
    "dropout": null,
    "unk_token": "[UNK]",
    "continuing_subword_prefix": null,
    "end_of_word_suffix": null,
    "fuse_unk": false,
    "byte_fallback": false,
    "ignore_merges": false,
    "vocab": {
      "[UNK]": 0,
      "!": 1,
      "\"": 2,
      "&": 3,
      "(": 4,
      ")": 5,
      "*": 6,
      ",": 7,
      "-": 8,
      ".": 9,
      "0": 10,
      "1": 11,
      "2": 12,
      "3": 13,
      "4": 14,
      "5": 15,
      "6": 16,
      "7": 17,
      "8": 18,
      "9": 19,
      ":": 20,
      ";": 21,
      "?": 22,
      "A": 23,
      "B": 24,
      "C": 25,
      "D": 26,
      "E": 27,
      "F": 28,
      "G": 29,
      "H": 30,
      "I": 31,
      "J": 32,
      "K": 33,
      "L": 34,
      "M": 35,
      "N": 36,
      "O": 37,
      "P": 38,
      "Q": 39,
      "R": 40,
      "S": 41,
      "T": 42,
      "U": 43,
      "V": 44,
      "W": 45,
      "X": 46,
      "Y": 47,
      "Z": 48,
      "[": 49,
      "]": 50,
      "a": 51,
      "b": 52,
      "c": 53,
      "d": 54,
      "e": 55,
      "f": 56,
      "g": 57,
      "h": 58,
      "i": 59,
      "j": 60,
      "k": 61,
      "l": 62,
      "m": 63,
      "n": 64,
      "o": 65,
      "p": 66,
      "q": 67,
      "r": 68,
      "s": 69,
      "t": 70,
      "u": 71,
      "v": 72,
      "w": 73,
      "x": 74,
      "y": 75,
      "z": 76,
      "¢": 77,
      "§": 78,
      "¨": 79,
      "©": 80,
      "ª": 81,
      "«": 82,
      "®": 83,
      "¯": 84,
      "°": 85,
      "´": 86,
      "¹": 87,
      "»": 88,
      "¼": 89,
      "Â": 90,
      "Ã": 91,
      "Å": 92,
      "â": 93,
      "Ċ": 94,
      "Ġ": 95,
      "Ģ": 96,
      "Ī": 97,
      "ī": 98,
      "Ĭ": 99,
      "ĭ": 100,
      "Ĵ": 101,
      "ĵ": 102,
      "Ļ": 103,
      "ł": 104,
      "Ġd": 105,
      "es": 106,
      "Ġl": 107,
      "en": 108,
      "Ġp": 109,
      "âĢ": 110,
      "âĢĻ": 111,
      "Ã©": 112,
      "on": 113,
      "Ġs": 114,
      "qu": 115,
      "ou": 116,
      "Ġc": 117,
      "re": 118,
      "Ġqu": 119,
      "er": 120,
      "an": 121,
      "oi": 122,
      "Ġde": 123,
      "Ġa": 124,
      "Ġm": 125,
      "Ġn": 126,
      "ai": 127,
      "ent": 128,
      "eu": 129,
      "il": 130,
      "Ġt": 131,
      "Ġf": 132,
      "Ġv": 133,
      "Ġ&": 134,
      "Ġla": 135,
      "le": 136,
      "Ġpa": 137,
      "ĠÃ": 138,
      "ti": 139,
      "un": 140,
      "Ġque": 141,
      "Ġles": 142,
      "Ġle": 143,
      "ri": 144,
      "ĠÃł": 145,
      "our": 146,
      "us": 147,
      "in": 148,
      "om": 149,
      "or": 150,
      "el": 151,
      "est": 152,
      "ant": 153,
      "Ġj": 154,
      "te": 155,
      "me": 156,
      "ais": 157,
      "ui": 158,
      "ans": 159,
      "eur": 160,
      "ous": 161,
      "Ġen": 162,
      "Ġr": 163,
      "ont": 164,
      "Ġdes": 165,
      "Ġne": 166,
      "oit": 167,
      "Ġun": 168,
      "Ġau": 169,
      "ment": 170,
      "Ġb": 171,
      "au": 172,
      "ce": 173,
      "Ġpar": 174,
      "Ġpl": 175,
      "Ġil": 176,
      "Ġqui": 177,
      "is": 178,
      "tre": 179,
      "ons": 180,
      "tÃ©": 181,
      "Ġce": 182,
      "Ãª": 183,
      "Ã¨": 184,
      "Ġpr": 185,
      "Ġpour": 186,
      "ar": 187,
      "Ġpas": 188,
      "Ġg": 189,
      "se": 190,
      "ĠÃ©": 191,
      "ra": 192,
      "Ġplus": 193,
      "Ġtou": 194,
      "si": 195,
      "oin": 196,
      "Ġest": 197,
      "Ġdans": 198,
      "li": 199,
      "Ġse": 200,
      "at": 201,
      "ne": 202,
      "res": 203,
      "end": 204,
      "ouv": 205,
      "elle": 206,
      "Ġch": 207,
      "Ġsu": 208,
      "Ġh": 209,
      "Ġe": 210,
      "ch": 211,
      "les": 212,
      "Ġcom": 213,
      "it": 214,
      "ag": 215,
      "Ġav": 216,
      "ĠdÃ©": 217,
      "ien": 218,
      "mp": 219,
      "Ġleur": 220,
      "tion": 221,
      "Ġdu": 222,
      "os": 223,
      "ois": 224,
      "que": 225,
      "Ġre": 226,
      "Ġfai": 227,
      "pp": 228,
      "Ġje": 229,
      "Ġin": 230,
      "Ġpeu": 231,
      "ab": 232,
      "and": 233,
      "eux": 234,
      "Ġlui": 235,
      "oir": 236,
      "ir": 237,
      "onn": 238,
      "ff": 239,
      "Ġsa": 240,
      "ĠL": 241,
      "Ġtout": 242,
      "mes": 243,
      "ĠC": 244,
      "Ġtr": 245,
      "ens": 246,
      "Ġo": 247,
      "Ġson": 248,
      "al": 249,
      "Ġsi": 250,
      "ec": 251,
      "Ã©s": 252,
      "am": 253,
      "Ġnous": 254,
      "ie": 255,
      "op": 256,
      "ain": 257,
      "ort": 258,
      "Ġune": 259,
      "ci": 260,
      "Ãªme": 261,
      "Ġvous": 262,
      "ure": 263,
      "et": 264,
      "Ġmais": 265,
      "Ġsur": 266,
      "aut": 267,
      "ĠS": 268,
      "Ġdi": 269,
      "de": 270,
      "Ġcon": 271,
      "ĠÃ©t": 272,
      "ge": 273,
      "Ġou": 274,
      "Ġbien": 275,
      "Ġi": 276,
      "Ġsans": 277,
      "Ãł": 278,
      "Ġcet": 279,
      "ol": 280,
      "oint": 281,
      "Ġsont": 282,
      "ers": 283,
      "Ã¨re": 284,
      "ces": 285,
      "Ġhom": 286,
      "Ġpoint": 287,
      "Ã©t": 288,
      "Ġser": 289,
      "Ã®": 290,
      "Ġon": 291,
      "oy": 292,
      "mi": 293,
      "Ġme": 294,
      "Ġri": 295,
      "ours": 296,
      "Ġli": 297,
      "ĠP": 298,
      "Ġex": 299,
      "Ġses": 300,
      "ac": 301,
      "Ġcel": 302,
      "av": 303,
      "roit": 304,
      "ter": 305,
      "ĠrÃ©": 306,
      "ouver": 307,
      "uis": 308,
      "Ġma": 309,
      "ation": 310,
      "Ġces": 311,
      "Ġfait": 312,
      "Ã»": 313,
      "Ġfor": 314,
      "di": 315,
      "ul": 316,
      "ĠI": 317,
      "Ã©e": 318,
      "age": 319,
      "Ġpeut": 320,
      "tions": 321,
      "ĠmÃªme": 322,
      "Ġavec": 323,
      "ance": 324,
      "oins": 325,
      "ve": 326,
      "ils": 327,
      "Ġquel": 328,
      "ĠJ": 329,
      "Ġcons": 330,
      "ĠD": 331,
      "as": 332,
      "Ġdis": 333,
      "Ġaux": 334,
      "tu": 335,
      "ĠÃª": 336,
      "eurs": 337,
      "ĠIl": 338,
      "ĠE": 339,
      "Ġy": 340,
      "Ġfaire": 341,
      "ature": 342,
      "Ġgr": 343,
      "Ġtous": 344,
      "ble": 345,
      "endre": 346,
      "Ġelle": 347,
      "Ġnature": 348,
      "Ġvi": 349,
      "rai": 350,
      "esp": 351,
      "oient": 352,
      "Ġcette": 353,
      "Ã©ri": 354,
      "Ġenf": 355,
      "une": 356,
      "ts": 357,
      "Ã¨s": 358,
      "Ġcomme": 359,
      "ez": 360,
      "ux": 361,
      "Ġaut": 362,
      "ut": 363,
      "ĠÃªtre": 364,
      "Ġmon": 365,
      "rÃ©": 366,
      "ĠM": 367,
      "ence": 368,
      "Ã´": 369,
      "able": 370,
      "Ġcont": 371,
      "ĠA": 372,
      "onne": 373,
      "jours": 374,
      "Ġseu": 375,
      "ile": 376,
      "ĠprÃ©": 377,
      "Ġtoujours": 378,
      "rer": 379,
      "app": 380,
      "Ã¢": 381,
      "Ã©n": 382,
      "em": 383,
      "elles": 384,
      "Ġdev": 385,
      "ue": 386,
      "Ġleurs": 387,
      "ĠQ": 388,
      "Ġrien": 389,
      "Ġfaut": 390,
      "Ġni": 391,
      "Ġgrand": 392,
      "emp": 393,
      "Ġapp": 394,
      "Ġent": 395,
      "Ġmoins": 396,
      "pr": 397,
      "ang": 398,
      "ser": 399,
      "Ġjam": 400,
      "Ġils": 401,
      "tes": 402,
      "Ġpre": 403,
      "cu": 404,
      "Ġet": 405,
      "Ġjamais": 406,
      "Ġpro": 407,
      "che": 408,
      "Ġpri": 409,
      "Ġmo": 410,
      "Ġcomm": 411,
      "Ãªtre": 412,
      "Ã¹": 413,
      "Ġmal": 414,
      "Ġhommes": 415,
      "st": 416,
      "Ġdont": 417,
      "Ã»t": 418,
      "ait": 419,
      "Ġob": 420,
      "ord": 421,
      "omme": 422,
      "Ġpe": 423,
      "gn": 424,
      "mb": 425,
      "Ġpuis": 426,
      "Ã©r": 427,
      "jet": 428,
      "ore": 429,
      "Ġpremi": 430,
      "ĠJe": 431,
      "aire": 432,
      "Ġrais": 433,
      "Ġquand": 434,
      "aux": 435,
      "Ġsent": 436,
      "ur": 437,
      "ler": 438,
      "Ġac": 439,
      "Ã©ra": 440,
      "vent": 441,
      "Ã§": 442,
      "ex": 443,
      "onc": 444,
      "ĠoÃ¹": 445,
      "bli": 446,
      "Ġcr": 447,
      "Ã´t": 448,
      "Ġar": 449,
      "ĠO": 450,
      "Ġdonn": 451,
      "ille": 452,
      "Ġparti": 453,
      "ard": 454,
      "Ġimp": 455,
      "otre": 456,
      "sent": 457,
      "Ġco": 458,
      "Ġprop": 459,
      "cher": 460,
      "Ġhomme": 461,
      "im": 462,
      "Ġas": 463,
      "tin": 464,
      "Ġdoit": 465,
      "aÃ®": 466,
      "ĠT": 467,
      "Ġcar": 468,
      "homme": 469,
      "ond": 470,
      "ants": 471,
      "Ã©g": 472,
      "ient": 473,
      "Ġconn": 474,
      "Ġcelui": 475,
      "ĠQu": 476,
      "cou": 477,
      "um": 478,
      "ussi": 479,
      "core": 480,
      "ver": 481,
      "Ġencore": 482,
      "itÃ©": 483,
      "out": 484,
      "eau": 485,
      "Ġpeup": 486,
      "orte": 487,
      "ist": 488,
      "Ã©es": 489,
      "Ġper": 490,
      "ĠN": 491,
      "ris": 492,
      "Ġsoit": 493,
      "Ġvie": 494,
      "enir": 495,
      "Ġvou": 496,
      "eure": 497,
      "rit": 498,
      "ine": 499,
      "Ġcomp": 500,
      "id": 501,
      "Ã©p": 502,
      "Ġont": 503,
      "Ġcor": 504,
      "Ġautres": 505,
      "Ġautre": 506,
      "Ġca": 507,
      "Ġman": 508,
      "Ġmes": 509,
      "Ġquelque": 510,
      "Ġbon": 511,
      "insi": 512,
      "Ġso": 513,
      "ion": 514,
      "mÃªme": 515,
      "ĠV": 516,
      "Ġdeux": 517,
      "tat": 518,
      "nement": 519,
      "Ġtoutes": 520,
      "Ġcela": 521,
      "Ġjus": 522,
      "Ġju": 523,
      "Ġdiff": 524,
      "vre": 525,
      "ors": 526,
      "Ġlib": 527,
      "autre": 528,
      "Ġmoi": 529,
      "ob": 530,
      "Ġavoir": 531,
      "ps": 532,
      "Ġfem": 533,
      "ques": 534,
      "Ġseul": 535,
      "Ġnos": 536,
      "omp": 537,
      "Ġdonc": 538,
      "ail": 539,
      "Ġaussi": 540,
      "titu": 541,
      "tt": 542,
      "ĠLe": 543,
      "ĠMais": 544,
      "Ġvol": 545,
      "Ġpu": 546,
      "oix": 547,
      "Ġdroit": 548,
      "lement": 549,
      "uit": 550,
      "oph": 551,
      "ĠG": 552,
      "Ġsou": 553,
      "Ġceux": 554,
      "ĠdÃ©p": 555,
      "Ġrest": 556,
      "Ġbes": 557,
      "Ġtoute": 558,
      "Ġpouv": 559,
      "ĠR": 560,
      "voir": 561,
      "Ġdou": 562,
      "ments": 563,
      "Ġdire": 564,
      "cl": 565,
      "ose": 566,
      "Ġdit": 567,
      "Ġjeu": 568,
      "ouve": 569,
      "erre": 570,
      "ĠLa": 571,
      "Ġraison": 572,
      "Ġbeau": 573,
      "Ġsens": 574,
      "tÃ©s": 575,
      "lÃł": 576,
      "Ã©d": 577,
      "ĠLes": 578,
      "Ãªmes": 579,
      "Ġforce": 580,
      "ations": 581,
      "ger": 582,
      "ieux": 583,
      "nes": 584,
      "Ã¨res": 585,
      "oc": 586,
      "sez": 587,
      "Ġnon": 588,
      "Ġver": 589,
      "ill": 590,
      "Ġavant": 591,
      "Ġmain": 592,
      "use": 593,
      "Ġesp": 594,
      "ier": 595,
      "ages": 596,
      "Ġcelle": 597,
      "Ġrapp": 598,
      "ess": 599,
      "Ġcoeur": 600,
      "ables": 601,
      "Ġpeuple": 602,
      "Ġainsi": 603,
      "Ġal": 604,
      "Ġfort": 605,
      "ĠgÃ©n": 606,
      "Ġappr": 607,
      "omb": 608,
      "ĠSi": 609,
      "Ġrend": 610,
      "dre": 611,
      "enf": 612,
      "Ġtra": 613,
      "Ġlais": 614,
      "ĠEn": 615,
      "ĠnÃ©": 616,
      "Ġan": 617,
      "gu": 618,
      "Ġpay": 619,
      "ouvernement": 620,
      "Ġnaturel": 621,
      "mer": 622,
      "ali": 623,
      "rir": 624,
      "Ġentre": 625,
      "Ġvolont": 626,
      "Ġatt": 627,
      "sible": 628,
      "Ã®tre": 629,
      "ĠDi": 630,
      "Ġpers": 631,
      "Ġab": 632,
      "mbl": 633,
      "ĠOn": 634,
      "Ġmieux": 635,
      "ati": 636,
      "Ġdonner": 637,
      "gne": 638,
      "uc": 639,
      "Ġtant": 640,
      "Ġtemp": 641,
      "Ġbesoin": 642,
      "eut": 643,
      "oire": 644,
      "ĠrÃ©p": 645,
      "ad": 646,
      "mile": 647,
      "Ġsoci": 648,
      "prÃ¨s": 649,
      "ori": 650,
      "aine": 651,
      "nent": 652,
      "rÃª": 653,
      "Ġfer": 654,
      "ĠCe": 655,
      "sion": 656,
      "Ġconv": 657,
      "Ġtrop": 658,
      "Ġeux": 659,
      "Ġins": 660,
      "ĠnÃ©ces": 661,
      "Ġcorps": 662,
      "Ġvotre": 663,
      "Ġparce": 664,
      "Ġhum": 665,
      "oses": 666,
      "Ġparticu": 667,
      "bles": 668,
      "Ġparticuli": 669,
      "Ġchoses": 670,
      "iens": 671,
      "aÃ®t": 672,
      "ophie": 673,
      "ante": 674,
      "Ġelles": 675,
      "Ġvoir": 676,
      "Ġeff": 677,
      "Ġpeti": 678,
      "ic": 679,
      "Ġcha": 680,
      "Ġpremier": 681,
      "ĠÃ©l": 682,
      "oyens": 683,
      "Ġvoy": 684,
      "Ġpres": 685,
      "ĠgÃ©nÃ©ra": 686,
      "Ġreg": 687,
      "Ġmet": 688,
      "Ġcou": 689,
      "ĠvÃ©ri": 690,
      "ĠÃ©toit": 691,
      "ĠmÃ©": 692,
      "vers": 693,
      "Ġvoul": 694,
      "Ġsenti": 695,
      "ange": 696,
      "sions": 697,
      "Ġemp": 698,
      "Ġsera": 699,
      "Ġlieu": 700,
      "str": 701,
      "sance": 702,
      "Ġfois": 703,
      "Ġmonde": 704,
      "cer": 705,
      "Ġsau": 706,
      "coup": 707,
      "Ġdonne": 708,
      "Ġseroit": 709,
      "Ġpubli": 710,
      "Ġaff": 711,
      "Ġliber": 712,
      "Ġpart": 713,
      "ĠÃ©g": 714,
      "Ġsupp": 715,
      "ente": 716,
      "Ġrapport": 717,
      "quel": 718,
      "Ġconf": 719,
      "ong": 720,
      "vous": 721,
      "Ġquoi": 722,
      "ins": 723,
      "ner": 724,
      "Ġmont": 725,
      "ĠvolontÃ©": 726,
      "Ġvoit": 727,
      "ĠGouvernement": 728,
      "oli": 729,
      "Ġgu": 730,
      "Ġcher": 731,
      "ale": 732,
      "Ã©tÃ©": 733,
      "Ġmis": 734,
      "aient": 735,
      "Ġobjet": 736,
      "ĠdiffÃ©r": 737,
      "aires": 738,
      "Ġid": 739,
      "Ġbeaucoup": 740,
      "Ġnotre": 741,
      "tement": 742,
      "ĠÃ©tat": 743,
      "Ġim": 744,
      "Ġjuge": 745,
      "Ġpos": 746,
      "Ġauc": 747,
      "Ġreste": 748,
      "quer": 749,
      "Ġdem": 750,
      "Ġvrai": 751,
      "Etat": 752,
      "ĠrÃ©s": 753,
      "ĠdÃ©f": 754,
      "cip": 755,
      "rez": 756,
      "Ġgens": 757,
      "Ġmar": 758,
      "ĠÃ¢": 759,
      "Ġassez": 760,
      "lÃ©": 761,
      "Ġgo": 762,
      "Ġfr": 763,
      "ĠSophie": 764,
      "Ġplais": 765,
      "Ġsavoir": 766,
      "Ġpays": 767,
      "Ġcit": 768,
      "tres": 769,
      "Ġrendre": 770,
      "att": 771,
      "ras": 772,
      "Ġsub": 773,
      "Ġfont": 774,
      "Ġveut": 775,
      "ĠÃ©tÃ©": 776,
      "Ġcontre": 777,
      "Ġsui": 778,
      "Ãªte": 779,
      "ĠPour": 780,
      "ĠlibertÃ©": 781,
      "tÃ©rÃª": 782,
      "Ġtemps": 783,
      "Ġcomment": 784,
      "Ġenfants": 785,
      "Ġprin": 786,
      "tr": 787,
      "tri": 788,
      "Ġsec": 789,
      "Ġad": 790,
      "lig": 791,
      "Ġserv": 792,
      "eureux": 793,
      "ses": 794,
      "oilÃł": 795,
      "Ġtour": 796,
      "Ġyeux": 797,
      "Ġtrav": 798,
      "sant": 799,
      "tif": 800,
      "ions": 801,
      "Ġam": 802,
      "Ġti": 803,
      "Ġph": 804,
      "Ġchose": 805,
      "ĠnÃ©cess": 806,
      "Ġchaque": 807,
      "Ġlong": 808,
      "ouvent": 809,
      "Ġfais": 810,
      "Ġsimp": 811,
      "Ġloi": 812,
      "oser": 813,
      "ĠtrÃ¨s": 814,
      "oyen": 815,
      "min": 816,
      "Ġsous": 817,
      "asse": 818,
      "uire": 819,
      "autres": 820,
      "Ġdevoir": 821,
      "Ġjusqu": 822,
      "Ġcomb": 823,
      "Ġpropre": 824,
      "iÃ¨re": 825,
      "ace": 826,
      "Ġsait": 827,
      "abit": 828,
      "rent": 829,
      "Ġpeine": 830,
      "heur": 831,
      "Ġcour": 832,
      "Ġjou": 833,
      "Ġexp": 834,
      "acun": 835,
      "Ġcer": 836,
      "ĠmaÃ®tre": 837,
      "ĠprÃ©s": 838,
      "per": 839,
      "Ġes": 840,
      "Ġfac": 841,
      "esprit": 842,
      "anger": 843,
      "enfant": 844,
      "aÃ®tre": 845,
      "Ġvois": 846,
      "ordre": 847,
      "Ġfemme": 848,
      "Ġpouvoir": 849,
      "Ġche": 850,
      "Ġag": 851,
      "ude": 852,
      "Ġvos": 853,
      "Ġavoit": 854,
      "Ġinc": 855,
      "istra": 856,
      "alitÃ©": 857,
      "Ġter": 858,
      "raire": 859,
      "mÃ©": 860,
      "Ġus": 861,
      "ances": 862,
      "tÃ©rÃªt": 863,
      "des": 864,
      "vÃ©": 865,
      "Ġfemmes": 866,
      "Ġplaisir": 867,
      "imp": 868,
      "Ġdoi": 869,
      "Ġsen": 870,
      "Ġconser": 871,
      "ĠU": 872,
      "ĠmÃªmes": 873,
      "ents": 874,
      "sement": 875,
      "par": 876,
      "sir": 877,
      "illes": 878,
      "rois": 879,
      "Ġsembl": 880,
      "Ġsuff": 881,
      "Ġmor": 882,
      "Ġjeunes": 883,
      "Ġcommun": 884,
      "Ġloix": 885,
      "endant": 886,
      "ĠpremiÃ¨re": 887,
      "ĠDieu": 888,
      "ĠlÃ©g": 889,
      "Ã©tat": 890,
      "Ġpersonne": 891,
      "Ġnour": 892,
      "tique": 893,
      "Ã¢t": 894,
      "ilitÃ©": 895,
      "Ġtel": 896,
      "Ġchacun": 897,
      "ect": 898,
      "oritÃ©": 899,
      "Ġgouver": 900,
      "Ġchar": 901,
      "Ġtrouve": 902,
      "amour": 903,
      "Ġdemand": 904,
      "ains": 905,
      "osi": 906,
      "Ġloin": 907,
      "isÃ©": 908,
      "Ã¨ve": 909,
      "Ġport": 910,
      "ĠsÃ»": 911,
      "Ġtrouver": 912,
      "Ġenfin": 913,
      "Ġvertu": 914,
      "Ġpresque": 915,
      "cri": 916,
      "Ġci": 917,
      "Ġmort": 918,
      "ches": 919,
      "ĠdÃ©j": 920,
      "ĠdÃ©s": 921,
      "avoir": 922,
      "Ġindi": 923,
      "Ġseulement": 924,
      "tout": 925,
      "Ġpoli": 926,
      "air": 927,
      "Ġenfant": 928,
      "exp": 929,
      "are": 930,
      "quoi": 931,
      "Ġnul": 932,
      "Ġseule": 933,
      "Ġtravail": 934,
      "ĠdÃ©jÃł": 935,
      "ct": 936,
      "ro": 937,
      "vant": 938,
      "Ġjour": 939,
      "Ġsujet": 940,
      "iter": 941,
      "ĠsociÃ©tÃ©": 942,
      "ront": 943,
      "Ġ[": 944,
      "ĠQue": 945,
      "Ġpuisse": 946,
      "ĠQuand": 947,
      "Ġdiffic": 948,
      "Ġjeune": 949,
      "ĠlÃł": 950,
      "Ġnom": 951,
      "Ġfond": 952,
      "ellement": 953,
      "ju": 954,
      "Ġaim": 955,
      "Ġfau": 956,
      "Ġpassions": 957,
      "Ġexemp": 958,
      "ique": 959,
      "Ġai": 960,
      "iles": 961,
      "ĠnÃ©cessaire": 962,
      "mis": 963,
      "Ġterre": 964,
      "ĠCet": 965,
      "Ġbonheur": 966,
      "je": 967,
      "Ġfi": 968,
      "Ġvu": 969,
      "Ġprincip": 970,
      "cep": 971,
      "Ġdistin": 972,
      "Ġmot": 973,
      "Ġeffet": 974,
      "Ġpens": 975,
      "agin": 976,
      "Ġrec": 977,
      "Ġinstr": 978,
      "ĠprÃ©c": 979,
      "ems": 980,
      "lis": 981,
      "Ġut": 982,
      "Ġtems": 983,
      "Ġgar": 984,
      "Ġtu": 985,
      "Ġrem": 986,
      "Ġautant": 987,
      "fin": 988,
      "Ġbonne": 989,
      "lir": 990,
      "ĠEmile": 991,
      "chant": 992,
      "iennent": 993,
      "Ġgrande": 994,
      "Ġvoud": 995,
      "mÃªmes": 996,
      "Ġsais": 997,
      "Ġbr": 998,
      "ction": 999,
      "Ġsort": 1000,
      "Ġresp": 1001,
      "Ġsouff": 1002,
      "Ġ[*": 1003,
      "ĠaprÃ¨s": 1004,
      "tis": 1005,
      "Ġpen": 1006,
      "Ã©l": 1007,
      "Ġdisp": 1008,
      "Ġcontraire": 1009,
      "Ġprod": 1010,
      "ĠF": 1011,
      "Ġmom": 1012,
      "Ġnomb": 1013,
      "ĠDans": 1014,
      "titution": 1015,
      "Ã©toit": 1016,
      "if": 1017,
      "yant": 1018,
      "Ġsouvent": 1019,
      "ĠÃī": 1020,
      "Ġret": 1021,
      "Ġcontra": 1022,
      "auv": 1023,
      "ĠeÃ»t": 1024,
      "ĠgoÃ»t": 1025,
      "Ġfut": 1026,
      "Ġenfans": 1027,
      "Ġdoivent": 1028,
      "mens": 1029,
      "Ġprendre": 1030,
      "Ġrepr": 1031,
      "ass": 1032,
      "Ġalors": 1033,
      "ges": 1034,
      "ĠÃ©le": 1035,
      "ĠÃ©tab": 1036,
      "Ġcelles": 1037,
      "Ġsel": 1038,
      "Ġcri": 1039,
      "ern": 1040,
      "Ġprend": 1041,
      "rant": 1042,
      "ĠdÃ©li": 1043,
      "ves": 1044,
      "Ã©qu": 1045,
      "Ġhumain": 1046,
      "fois": 1047,
      "vres": 1048,
      "Ġfin": 1049,
      "Ġpeuvent": 1050,
      "Ġpi": 1051,
      "Ġait": 1052,
      "rib": 1053,
      "int": 1054,
      "Ġind": 1055,
      "Ġperd": 1056,
      "mble": 1057,
      "ĠÃ©tant": 1058,
      "Ã©tend": 1059,
      "Ġsentir": 1060,
      "Ġsentiment": 1061,
      "Ġaucun": 1062,
      "Ġcitoyens": 1063,
      "cien": 1064,
      "lle": 1065,
      "ilos": 1066,
      "Ġtromp": 1067,
      "Ġvient": 1068,
      "ĠprÃ©v": 1069,
      "Ġmoment": 1070,
      "tant": 1071,
      "tir": 1072,
      "Ġici": 1073,
      "ucation": 1074,
      "ĠidÃ©es": 1075,
      "Ġnombre": 1076,
      "xi": 1077,
      "Ġcl": 1078,
      "Ġnouv": 1079,
      "Ġtrouv": 1080,
      "Ġmemb": 1081,
      "ĠDe": 1082,
      "Ġass": 1083,
      "Ġsuis": 1084,
      "Ġgrands": 1085,
      "pi": 1086,
      "Ġsorte": 1087,
      "ĠmÃ¨re": 1088,
      "Ġchange": 1089,
      "ran": 1090,
      "Ġremp": 1091,
      ".]": 1092,
      "Ġsien": 1093,
      "oign": 1094,
      "Ġren": 1095,
      "eff": 1096,
      "Ġlois": 1097,
      "era": 1098,
      "olu": 1099,
      "serv": 1100,
      "Ġselon": 1101,
      "uite": 1102,
      "Ġvivre": 1103,
      "Ġmoeurs": 1104,
      "Ġpeuples": 1105,
      "ĠmaniÃ¨re": 1106,
      "bre": 1107,
      "Ġconsid": 1108,
      "Ġcommen": 1109,
      "time": 1110,
      "vid": 1111,
      "Ġcond": 1112,
      "ĠrÃ©f": 1113,
      "ĠÃ¢ge": 1114,
      "Ġforme": 1115,
      "gent": 1116,
      "Ġans": 1117,
      "enant": 1118,
      "Ġnais": 1119,
      "ulti": 1120,
      "ĠVous": 1121,
      "Ã©m": 1122,
      "Ġpasser": 1123,
      "Ġcesse": 1124,
      "Ġprof": 1125,
      "ĠUn": 1126,
      "Ġparler": 1127,
      "Ã¨ce": 1128,
      "Ġrep": 1129,
      "Ġcert": 1130,
      "Ġlang": 1131,
      "ili": 1132,
      "ĠB": 1133,
      "Ġmag": 1134,
      "Ġmoyen": 1135,
      "ĠfÃ»t": 1136,
      "Ġchez": 1137,
      "Ġheureux": 1138,
      "Ġoc": 1139,
      "ientÃ´t": 1140,
      "sÃ©": 1141,
      "oie": 1142,
      "Ġ&,": 1143,
      "Ġsuc": 1144,
      "ĠdÃ©sir": 1145,
      "abord": 1146,
      "Ġquelques": 1147,
      "ĠNous": 1148,
      "Ġobjets": 1149,
      "art": 1150,
      "Ġrel": 1151,
      "Ġcontin": 1152,
      "Ġdisc": 1153,
      "Ġcrain": 1154,
      "ds": 1155,
      "Ġcas": 1156,
      "Ġplace": 1157,
      "ĠdÃ©pend": 1158,
      "Ġphilos": 1159,
      "Ġsoin": 1160,
      "Ġvain": 1161,
      "Ġpau": 1162,
      "rage": 1163,
      "ouverain": 1164,
      "Ġacc": 1165,
      "Ġregard": 1166,
      "tte": 1167,
      "Ġques": 1168,
      "ĠmÃ©ri": 1169,
      "Ġfl": 1170,
      "ĠprÃ©ju": 1171,
      "avant": 1172,
      "Ġanim": 1173,
      "fs": 1174,
      "Ġhonn": 1175,
      "Ġrev": 1176,
      "ĠCh": 1177,
      "Ġprix": 1178,
      "ĠvÃ©rit": 1179,
      "Ġfoi": 1180,
      "Ġfam": 1181,
      "temp": 1182,
      "iere": 1183,
      "ĠRom": 1184,
      "ĠgÃ©nÃ©rale": 1185,
      "ommes": 1186,
      "..": 1187,
      "gue": 1188,
      "Ġporte": 1189,
      "Ġmouve": 1190,
      "Ġvoix": 1191,
      "Ġhabit": 1192,
      "autoritÃ©": 1193,
      "Ġmod": 1194,
      "trie": 1195,
      "Ġeu": 1196,
      "Ġsoins": 1197,
      "ĠrÃ¨": 1198,
      "appr": 1199,
      "Ġlibre": 1200,
      "Ġesprit": 1201,
      "Ġmauv": 1202,
      "Ġton": 1203,
      "ĠdÃ©v": 1204,
      "Ã§ons": 1205,
      "ĠrÃ©pond": 1206,
      "Ġmembres": 1207,
      "ĠH": 1208,
      "ĠbientÃ´t": 1209,
      "ĠAu": 1210,
      "Ġimport": 1211,
      "opp": 1212,
      "xe": 1213,
      "ĠÃ©p": 1214,
      "Ġinf": 1215,
      "ĠconsÃ©qu": 1216,
      "Ġabs": 1217,
      "ĠÃ©lÃ¨ve": 1218,
      "isÃ©ment": 1219,
      "ĠCette": 1220,
      "lent": 1221,
      "euse": 1222,
      "lez": 1223,
      "Ġparmi": 1224,
      "Ġmeill": 1225,
      "ĠPar": 1226,
      "Ġquelle": 1227,
      "Ġcap": 1228,
      "ĠVoilÃł": 1229,
      "gr": 1230,
      "ĠÃ´": 1231,
      "Ġarri": 1232,
      "Ġpetit": 1233,
      "uri": 1234,
      "ences": 1235,
      "Ã©rer": 1236,
      "acc": 1237,
      "Ġmari": 1238,
      "Ġmettre": 1239,
      "Ġbor": 1240,
      "Ġsurtout": 1241,
      "Ġdevoirs": 1242,
      "aff": 1243,
      "Ġ\"": 1244,
      "ĠpÃ¨re": 1245,
      "Ġsoient": 1246,
      "Ġfra": 1247,
      "els": 1248,
      "Ġaura": 1249,
      "tÃ©e": 1250,
      "Ġpuissance": 1251,
      "Ġmesure": 1252,
      "oyez": 1253,
      "ĠprÃ©f": 1254,
      "Ġmains": 1255,
      "ĠvÃ©ritable": 1256,
      "Ġmauvais": 1257,
      "grÃ©": 1258,
      "ign": 1259,
      "ues": 1260,
      "Ãī": 1261,
      "Ġcent": 1262,
      "Ãªtes": 1263,
      "Ġhon": 1264,
      "Ġop": 1265,
      "Ġmaxi": 1266,
      "ĠElle": 1267,
      "Ġpremiers": 1268,
      "Ġcoup": 1269,
      "ĠvÃ©ritÃ©": 1270,
      "Ġpublique": 1271,
      "Ã©cu": 1272,
      "Ġsit": 1273,
      "Ġpourquoi": 1274,
      "ĠCor": 1275,
      "ĠÃ©tr": 1276,
      "Ã®t": 1277,
      "Ġconnais": 1278,
      "Ġcause": 1279,
      "dess": 1280,
      "ubli": 1281,
      "Ġmalh": 1282,
      "Ġjuger": 1283,
      "clav": 1284,
      "Ġlaisser": 1285,
      "Ġor": 1286,
      "oute": 1287,
      "entend": 1288,
      "Ã¨te": 1289,
      "Ġgra": 1290,
      "ĠdÃ©t": 1291,
      "Ġappar": 1292,
      "gÃ©s": 1293,
      "Ġsages": 1294,
      "Ġveux": 1295,
      "ĠdÃ©c": 1296,
      "ĠintÃ©rÃªt": 1297,
      "Ġpartie": 1298,
      "Ġchercher": 1299,
      "ĠprÃ©sent": 1300,
      "Ġpor": 1301,
      "ĠPol": 1302,
      "Ġimpos": 1303,
      "arer": 1304,
      "Ġdern": 1305,
      "Ġno": 1306,
      "Ã¨me": 1307,
      "Ġtrou": 1308,
      "Ġexer": 1309,
      "Ġpris": 1310,
      "Ġquelquefois": 1311,
      "ĠsÃ»r": 1312,
      "Ġlaqu": 1313,
      "tive": 1314,
      "antes": 1315,
      "ĠrÃ©g": 1316,
      "rait": 1317,
      "Ġcrois": 1318,
      "Ġcombien": 1319,
      "Ġexemple": 1320,
      "oÃ®tre": 1321,
      "vis": 1322,
      "esse": 1323,
      "enu": 1324,
      "Ġnation": 1325,
      "tice": 1326,
      "Ġgouvern": 1327,
      "lus": 1328,
      "rais": 1329,
      "Ġsp": 1330,
      "user": 1331,
      "omm": 1332,
      "ise": 1333,
      "onnes": 1334,
      "ĠAinsi": 1335,
      "Ġmagistra": 1336,
      "ĠCorps": 1337,
      "ari": 1338,
      "honn": 1339,
      "Ġord": 1340,
      "Ġmille": 1341,
      "ouvrage": 1342,
      "Ã©nat": 1343,
      "cup": 1344,
      "Ġapprendre": 1345,
      "Ġnaturelle": 1346,
      "Ġsubs": 1347,
      "oisi": 1348,
      "ĠmÃ©p": 1349,
      "Ġlequel": 1350,
      "iste": 1351,
      "chÃ©": 1352,
      "Ġentend": 1353,
      "Ġhumaine": 1354,
      "Ġvouloir": 1355,
      "yst": 1356,
      "Ã©rÃ©": 1357,
      "Ġmaux": 1358,
      "Ġplut": 1359,
      "ager": 1360,
      "Ġtrai": 1361,
      "ici": 1362,
      "Ã©v": 1363,
      "Ġsoi": 1364,
      "Ġfal": 1365,
      "Ġconstitution": 1366,
      "Ġrapports": 1367,
      "Ġciv": 1368,
      "ĠplutÃ´t": 1369,
      "ales": 1370,
      "entes": 1371,
      "Ġfav": 1372,
      "tiÃ©": 1373,
      "Ġacqu": 1374,
      "Ġpossible": 1375,
      "cÃ©": 1376,
      "anitÃ©": 1377,
      "ĠvoilÃł": 1378,
      "uses": 1379,
      "ister": 1380,
      "ats": 1381,
      "ĠNon": 1382,
      "Ġaucune": 1383,
      "Ġreconn": 1384,
      "ap": 1385,
      "leurs": 1386,
      "tie": 1387,
      "tient": 1388,
      "instr": 1389,
      "Ġchoix": 1390,
      "onner": 1391,
      "Ã®tres": 1392,
      "Ġcommence": 1393,
      "Ġdroits": 1394,
      "ire": 1395,
      "Ã©c": 1396,
      "onde": 1397,
      "Ġsage": 1398,
      "Ġgen": 1399,
      "Ġjugement": 1400,
      "enez": 1401,
      "Ġref": 1402,
      "Ġrelig": 1403,
      "ĠmaÃ®tres": 1404,
      "Ġmots": 1405,
      "Ġbesoins": 1406,
      "ĠRÃ©p": 1407,
      "Ġsensible": 1408,
      "gment": 1409,
      "Ġtomb": 1410,
      "ĠtÃªte": 1411,
      "issent": 1412,
      "ĠÃ©c": 1413,
      "agne": 1414,
      "ĠNe": 1415,
      "Ġjours": 1416,
      "met": 1417,
      "cevoir": 1418,
      "Ġsav": 1419,
      "Ã©rience": 1420,
      "Ġmaint": 1421,
      "Ġparticulier": 1422,
      "Ġfaud": 1423,
      "Ġlaquelle": 1424,
      "Ġlu": 1425,
      "reux": 1426,
      "isl": 1427,
      "ection": 1428,
      "Ã©rir": 1429,
      "ĠTout": 1430,
      "Ġempl": 1431,
      "Ġquestion": 1432,
      "dessus": 1433,
      "ĠRÃ©publi": 1434,
      "ieurs": 1435,
      "pendant": 1436,
      "Ġress": 1437,
      "Ġprom": 1438,
      "sitÃ©": 1439,
      "ĠdÃ©g": 1440,
      "Ġattent": 1441,
      "ĠidÃ©e": 1442,
      "Ġservir": 1443,
      "Ġsimple": 1444,
      "Ġdifficile": 1445,
      "Ġcontinu": 1446,
      "eil": 1447,
      "gle": 1448,
      "Ġmoyens": 1449,
      "Ġte": 1450,
      "ĠreÃ§": 1451,
      "Ġdoute": 1452,
      "Ġutile": 1453,
      "gÃ©": 1454,
      "entre": 1455,
      "Ġtient": 1456,
      "Ġbou": 1457,
      "resse": 1458,
      "Ġtrans": 1459,
      "citÃ©": 1460,
      "Ġseront": 1461,
      "ĠIls": 1462,
      "Ġpetits": 1463,
      "este": 1464,
      "Ġroi": 1465,
      "iss": 1466,
      "raient": 1467,
      "stant": 1468,
      "Ġparticuliers": 1469,
      "Ġsensi": 1470,
      "up": 1471,
      "enne": 1472,
      "iner": 1473,
      "tez": 1474,
      "ĠdÃ©tr": 1475,
      "Ġconc": 1476,
      "ultÃ©s": 1477,
      "Ã¢me": 1478,
      "Ġdevient": 1479,
      "Ġlaisse": 1480,
      "Ġatta": 1481,
      "Ġdistingu": 1482,
      "hum": 1483,
      "ourd": 1484,
      "tÃ©ri": 1485,
      "ĠprÃ©tend": 1486,
      "Ġplusieurs": 1487,
      "Ġinter": 1488,
      "Ġimporte": 1489,
      "Ġpolitique": 1490,
      "ca": 1491,
      "rui": 1492,
      "Ġcroit": 1493,
      "Ġvis": 1494,
      "Ġpatrie": 1495,
      "Ã©galitÃ©": 1496,
      "temps": 1497,
      "Ġsin": 1498,
      "qui": 1499,
      "ĠmÃ©t": 1500,
      "usage": 1501,
      "Ġsemble": 1502,
      "Ġhors": 1503,
      "Ġdivers": 1504,
      "Ġbiens": 1505,
      "Ġcroire": 1506,
      "erreur": 1507,
      "Ġtirer": 1508,
      "Ġsemblables": 1509,
      "Ġremar": 1510,
      "Ġfille": 1511,
      "Ġparle": 1512,
      "agit": 1513,
      "Ġriches": 1514,
      "Ã©ration": 1515,
      "ĠconnaÃ®tre": 1516,
      "ĠdiffÃ©rence": 1517,
      "Ġimagin": 1518,
      "ĠÃīmile": 1519,
      "habit": 1520,
      "Ã¯": 1521,
      "Ġtal": 1522,
      "oindre": 1523,
      "Ġsign": 1524,
      "Ġconnois": 1525,
      "quels": 1526,
      "Ġporter": 1527,
      "Ġphilosoph": 1528,
      "Ġfrapp": 1529,
      "alement": 1530,
      "ot": 1531,
      "rain": 1532,
      "ense": 1533,
      "ret": 1534,
      "intÃ©rÃªt": 1535,
      "Ġheure": 1536,
      "chent": 1537,
      "ĠSouverain": 1538,
      "ĠOr": 1539,
      "ĠprÃ©jugÃ©s": 1540,
      "og": 1541,
      "ode": 1542,
      "inion": 1543,
      "Ġforces": 1544,
      "Ġpublic": 1545,
      "Ġconserver": 1546,
      "Ġdiscours": 1547,
      "lex": 1548,
      "Ġavez": 1549,
      "ĠCes": 1550,
      "ĠÃ©toient": 1551,
      "coutu": 1552,
      "Ã©ducation": 1553,
      "ĠespÃ¨ce": 1554,
      "Ġplaisirs": 1555,
      "Ġfamille": 1556,
      "Ġreligion": 1557,
      "ies": 1558,
      "lu": 1559,
      "Ġpie": 1560,
      "Ġavons": 1561,
      "Ġcru": 1562,
      "ocra": 1563,
      "Ġapprend": 1564,
      "ĠgoÃ»": 1565,
      "ĠmÃ©rite": 1566,
      "nÃ©": 1567,
      "ole": 1568,
      "Ġfa": 1569,
      "Ġauroit": 1570,
      "Ġplu": 1571,
      "Ġpropor": 1572,
      "Ġsentiments": 1573,
      "ible": 1574,
      "Ġcol": 1575,
      "elopp": 1576,
      "Ġplain": 1577,
      "Ġgouvernement": 1578,
      "ĠdÃ©m": 1579,
      "Ġrecher": 1580,
      "avoit": 1581,
      "Ġfaits": 1582,
      "ult": 1583,
      "Ã¢ge": 1584,
      "Ġjuste": 1585,
      "ĠgÃ©nÃ©ral": 1586,
      "ĠagrÃ©": 1587,
      "osition": 1588,
      ".\"": 1589,
      "cÃ¨s": 1590,
      "roient": 1591,
      "ysi": 1592,
      "ĠcÃ´": 1593,
      "Ġtard": 1594,
      "Ġfit": 1595,
      "Ġvers": 1596,
      "vez": 1597,
      "ĠQuel": 1598,
      "Ã©par": 1599,
      "Ġsujets": 1600,
      "Ġmouvement": 1601,
      "vin": 1602,
      "Ġsor": 1603,
      "ĠprÃª": 1604,
      "ĠÃ©d": 1605,
      "Ġsexe": 1606,
      "Ġemb": 1607,
      "Ġinut": 1608,
      "Ġtrois": 1609,
      "Ġoff": 1610,
      "avois": 1611,
      "dire": 1612,
      "Ġraisons": 1613,
      "ĠconnoÃ®tre": 1614,
      "Ġjustice": 1615,
      "objet": 1616,
      "titude": 1617,
      "Ġmontrer": 1618,
      "ĠguÃ¨re": 1619,
      "ĠlÃ©gisl": 1620,
      "Ġdemande": 1621,
      "cience": 1622,
      "eÃ»t": 1623,
      "ivers": 1624,
      "vi": 1625,
      "vation": 1626,
      "ennent": 1627,
      "Ã©le": 1628,
      "Ġta": 1629,
      "Ġlongtemps": 1630,
      "Ġpenser": 1631,
      "avantage": 1632,
      "ĠRÃ©publique": 1633,
      "cle": 1634,
      "ciens": 1635,
      "od": 1636,
      "ĠparaÃ®t": 1637,
      "Ġpourtant": 1638,
      "Ġign": 1639,
      "Ġprogr": 1640,
      "ĠmalgrÃ©": 1641,
      "Ġcorr": 1642,
      "Ġmontre": 1643,
      "ĠprogrÃ¨s": 1644,
      "fai": 1645,
      "sances": 1646,
      "tus": 1647,
      "Ġtend": 1648,
      "tier": 1649,
      "ines": 1650,
      "Ġbras": 1651,
      "arras": 1652,
      "ĠCel": 1653,
      "Ã©tab": 1654,
      "Ġviol": 1655,
      "ĠAl": 1656,
      "Ġcarac": 1657,
      "Ġpauvre": 1658,
      ".*": 1659,
      "nÃ©e": 1660,
      "Ġdom": 1661,
      "erce": 1662,
      "ĠnÃ©g": 1663,
      "Ġfils": 1664,
      "Ġva": 1665,
      "lic": 1666,
      "Ġlivre": 1667,
      "Ġform": 1668,
      "Ġgros": 1669,
      "ĠobÃ©": 1670,
      "Ġanimaux": 1671,
      "ĠdÃ©velopp": 1672,
      "Ġgenre": 1673,
      "ece": 1674,
      "Ġsang": 1675,
      "Ġpare": 1676,
      "orme": 1677,
      "ĠprÃ¨s": 1678,
      "arde": 1679,
      "imagin": 1680,
      "ĠempÃª": 1681,
      "ministra": 1682,
      "Ġjeunesse": 1683,
      "Ġtoi": 1684,
      "Ġville": 1685,
      "litÃ©": 1686,
      "autant": 1687,
      "ĠSÃ©nat": 1688,
      "Ġcondi": 1689,
      "Ġsert": 1690,
      "Ġfaites": 1691,
      "Ġgrandes": 1692,
      "Ġcitoyen": 1693,
      "atta": 1694,
      "Ġsuivre": 1695,
      "Ġrespec": 1696,
      "Ġproduit": 1697,
      "honneur": 1698,
      "ĠpÃ©n": 1699,
      "Ġty": 1700,
      "ĠleÃ§ons": 1701,
      "ource": 1702,
      "Ġuns": 1703,
      "argent": 1704,
      "ĠdÃ©d": 1705,
      "Ġint": 1706,
      "Ġdevant": 1707,
      "Ġobserv": 1708,
      "Ġrester": 1709,
      "Ġoccup": 1710,
      "ĠdÃ¨s": 1711,
      "Ġaj": 1712,
      "Ġmu": 1713,
      "Ġtent": 1714,
      "Ã¨le": 1715,
      "Ġpasse": 1716,
      "Ġriche": 1717,
      "ĠEtat": 1718,
      "Ġvertus": 1719,
      "ĠnÃ©cessitÃ©": 1720,
      "Ġproportion": 1721,
      "tÃ´t": 1722,
      "auc": 1723,
      "Ġpass": 1724,
      "Ġchanger": 1725,
      "andis": 1726,
      "Ġcommune": 1727,
      "Ġcoeurs": 1728,
      "Ġpropres": 1729,
      "ĠconnaÃ®t": 1730,
      "Ġfera": 1731,
      "Ġconven": 1732,
      "Ġsuffit": 1733,
      "Ġmorale": 1734,
      "Ġfaute": 1735,
      "Ġprincipe": 1736,
      "aprÃ¨s": 1737,
      "Ġsol": 1738,
      "Ġmoindre": 1739,
      "Ġfour": 1740,
      "Ġpourroit": 1741,
      "ĠdÃ©ter": 1742,
      "Ġopp": 1743,
      "ulte": 1744,
      "Ġcontent": 1745,
      "Ã¢che": 1746,
      "Ġguerre": 1747,
      "Ġusage": 1748,
      "ĠdÃ©sirs": 1749,
      "ayant": 1750,
      "con": 1751,
      "Ġpun": 1752,
      "Ġpeur": 1753,
      "Ġsyst": 1754,
      "ĠaisÃ©ment": 1755,
      "euses": 1756,
      "Ġeng": 1757,
      "Ġra": 1758,
      "ĠÃ©cl": 1759,
      "Ã©tois": 1760,
      "Ġvices": 1761,
      "Ġraisonne": 1762,
      "istance": 1763,
      "istoire": 1764,
      "mÃ©di": 1765,
      "Ġaime": 1766,
      "Ġpense": 1767,
      "Ġretour": 1768,
      "ĠreprÃ©s": 1769,
      "ĠconsÃ©quent": 1770,
      "Ġmeilleur": 1771,
      "Ġmaximes": 1772,
      "ĠportÃ©e": 1773,
      "Ġsommes": 1774,
      "Ġtenir": 1775,
      "Ġfasse": 1776,
      "Ġparv": 1777,
      "Ġprati": 1778,
      "ĠÃ©ch": 1779,
      "opinion": 1780,
      "orter": 1781,
      "Ġlivres": 1782,
      "ĠrÃ©un": 1783,
      "Ã§on": 1784,
      "ĠÃ©galement": 1785,
      "Ġcertain": 1786,
      "ĠPolo": 1787,
      "Ġlumi": 1788,
      "iend": 1789,
      "lais": 1790,
      "ud": 1791,
      "val": 1792,
      "Ġayant": 1793,
      "Ġvue": 1794,
      "Ã¨ne": 1795,
      "Ġgl": 1796,
      "ienne": 1797,
      "iez": 1798,
      "Ġoubli": 1799,
      "Ġexam": 1800,
      "Ġformer": 1801,
      "ĠdonnÃ©": 1802,
      "Ġconvient": 1803,
      "Ġinstitu": 1804,
      "Ġpartout": 1805,
      "Ġindivid": 1806,
      "Ġprincipes": 1807,
      "Ġimpossible": 1808,
      "ĠcÃ´tÃ©": 1809,
      "ĠPologne": 1810,
      "enoit": 1811,
      "Ġvin": 1812,
      "tiques": 1813,
      "Ġense": 1814,
      "Ġfaibles": 1815,
      "Ġexac": 1816,
      "ĠEnfin": 1817,
      "ative": 1818,
      "ĠÃ©gard": 1819,
      "ĠsÃ»re": 1820,
      "Ġaimer": 1821,
      "ĠÃ©tabli": 1822,
      "Ġmalheureux": 1823,
      "nous": 1824,
      "Ġculti": 1825,
      "aimer": 1826,
      "Ġtelle": 1827,
      "ĠtÃ©m": 1828,
      "Ġvit": 1829,
      "Ġrang": 1830,
      "Ġbout": 1831,
      "ĠplaÃ®t": 1832,
      "arb": 1833,
      "Ġgag": 1834,
      "Ġmaison": 1835,
      "Ġsauv": 1836,
      "Ġservi": 1837,
      "Ġfacile": 1838,
      "Ġchefs": 1839,
      "effet": 1840,
      "ctions": 1841,
      "dit": 1842,
      "leur": 1843,
      "rÃ©e": 1844,
      "Ġafin": 1845,
      "Ġtris": 1846,
      "Ġfus": 1847,
      "Ġvrais": 1848,
      "rin": 1849,
      "uits": 1850,
      "Ġunique": 1851,
      "Ġliv": 1852,
      "Ġentendre": 1853,
      "Ġsocial": 1854,
      "Ġsecond": 1855,
      "Ġesclav": 1856,
      "Ġnourri": 1857,
      "expÃ©rience": 1858,
      "Ġrespect": 1859,
      "ministration": 1860,
      "ere": 1861,
      "ures": 1862,
      "ĠmÃ©d": 1863,
      "ĠtÃ´t": 1864,
      "Ġenv": 1865,
      "Ġaugment": 1866,
      "Ġdurant": 1867,
      "urer": 1868,
      "ditÃ©": 1869,
      "Ġviv": 1870,
      "Ã´tre": 1871,
      "Ġdevenir": 1872,
      "Ġpropos": 1873,
      "Ġsoli": 1874,
      "gueur": 1875,
      "ĠparticuliÃ¨re": 1876,
      "Ġincon": 1877,
      "Ġremplir": 1878,
      "vu": 1879,
      "Ġsouver": 1880,
      "Ġmulti": 1881,
      "Ã¨rent": 1882,
      "ateur": 1883,
      "irent": 1884,
      "amment": 1885,
      "oyer": 1886,
      "Ã©rence": 1887,
      "Ã©rations": 1888,
      "Ã§oit": 1889,
      "ĠÃ©loign": 1890,
      "Ġsauroit": 1891,
      "Ġphysi": 1892,
      "Ġfaisant": 1893,
      "Ġsouffrir": 1894,
      "Ġfaudroit": 1895,
      "habitude": 1896,
      "Ġmultip": 1897,
      "oÃ¹": 1898,
      "Ġdange": 1899,
      "Ġple": 1900,
      "Ġsuit": 1901,
      "oux": 1902,
      "anti": 1903,
      "Ġveu": 1904,
      "Ġdoux": 1905,
      "ĠrÃ©flex": 1906,
      "Ãītat": 1907,
      "Ġsagesse": 1908,
      "ement": 1909,
      "lant": 1910,
      "tent": 1911,
      "tra": 1912,
      "Ġcuri": 1913,
      "Ġair": 1914,
      "iller": 1915,
      "uste": 1916,
      "liquer": 1917,
      "ambre": 1918,
      "Ġsurp": 1919,
      "autrui": 1920,
      "avec": 1921,
      "Ġmati": 1922,
      "Ġcontrain": 1923,
      "ĠQui": 1924,
      "Ġpuisque": 1925,
      "urop": 1926,
      "Ġactions": 1927,
      "Ã©rable": 1928,
      "Ġattend": 1929,
      "ĠPourquoi": 1930,
      "vÃ©n": 1931,
      "enus": 1932,
      "Ġtable": 1933,
      "Ġavoient": 1934,
      "ĠCom": 1935,
      "orts": 1936,
      "Ġautour": 1937,
      "gner": 1938,
      "ĠTous": 1939,
      "Ġfortune": 1940,
      "Ġcaract": 1941,
      "Ġpai": 1942,
      "Ġpure": 1943,
      "quelles": 1944,
      "Ġmou": 1945,
      "tÃ©res": 1946,
      "ĠCar": 1947,
      "Ġtran": 1948,
      "exemp": 1949,
      "oncer": 1950,
      "Ġperdre": 1951,
      "Ġmaniere": 1952,
      "Ġsienne": 1953,
      "ĠsitÃ´t": 1954,
      "ĠmÃ©th": 1955,
      "ĠÃ©ducation": 1956,
      "ĠAlors": 1957,
      "hÃ©": 1958,
      "histoire": 1959,
      "eres": 1960,
      "Ġval": 1961,
      "tiens": 1962,
      "ritÃ©": 1963,
      "Ġjeux": 1964,
      "Ġbons": 1965,
      "Ġbonnes": 1966,
      "aurois": 1967,
      "Ġgard": 1968,
      "licitÃ©": 1969,
      "Ã©tant": 1970,
      "Ġenfan": 1971,
      "Ġobser": 1972,
      "Ġraisonn": 1973,
      "Ġacte": 1974,
      "obÃ©": 1975,
      "ailleurs": 1976,
      "Ġanciens": 1977,
      "Ġabus": 1978,
      "Ġvoyant": 1979,
      "Ġsimples": 1980,
      "ĠÃ©trang": 1981,
      "Ġdernier": 1982,
      "ĠmÃ©pris": 1983,
      "Ġtyran": 1984,
      "Ġlors": 1985,
      "quÃ©": 1986,
      "Ġmin": 1987,
      "Ġmili": 1988,
      "Ġfeu": 1989,
      "rise": 1990,
      "instant": 1991,
      "ande": 1992,
      "Ġsonge": 1993,
      "ĠrÃ©v": 1994,
      "ĠÃªtres": 1995,
      "ĠMon": 1996,
      "exer": 1997,
      "Ġcompar": 1998,
      "enfance": 1999,
      "Ġaffec": 2000,
      "ĠdÃ©faut": 2001,
      "Ġsouveraine": 2002,
      "Ġmultipli": 2003,
      "cent": 2004,
      "la": 2005,
      "tance": 2006,
      "Ġmen": 2007,
      "ĠmÃª": 2008,
      "ĠÃ©cou": 2009,
      "Ġsavent": 2010,
      "Ã§ois": 2011,
      "ĠQuoi": 2012,
      "Ġavantage": 2013,
      "uction": 2014,
      "Ġamour": 2015,
      "Ġconservation": 2016,
      "Ġindiff": 2017,
      "Ġconduite": 2018,
      "ade": 2019,
      "rons": 2020,
      "Ġsc": 2021,
      "ĠnaÃ®tre": 2022,
      "ĠfrÃ©": 2023,
      "inaire": 2024,
      "Ġauquel": 2025,
      "issant": 2026,
      "ression": 2027,
      "ĠLA": 2028,
      "Ġris": 2029,
      "Ġexi": 2030,
      "ĠrÃ©d": 2031,
      "urent": 2032,
      "Ġpouvoit": 2033,
      "ĠDiÃ¨te": 2034,
      "ĠmÃ©m": 2035,
      "Ġsemblable": 2036,
      "ĠlÃ©gi": 2037,
      "Ġrepos": 2038,
      "mettre": 2039,
      "conque": 2040,
      "bilitÃ©": 2041,
      "fi": 2042,
      "Ġerreur": 2043,
      "enn": 2044,
      "quent": 2045,
      "Ġrob": 2046,
      "Ġpassion": 2047,
      "Ġcompr": 2048,
      "ĠSans": 2049,
      "ĠPeu": 2050,
      "Ġexc": 2051,
      "emb": 2052,
      "empÃª": 2053,
      "Ġcompos": 2054,
      "idÃ©e": 2055,
      "ĠfacultÃ©s": 2056,
      "Ġlangage": 2057,
      "ĠRome": 2058,
      "Ġcorromp": 2059,
      "ON": 2060,
      "gan": 2061,
      "uer": 2062,
      "Ġcir": 2063,
      "Ġtandis": 2064,
      "Ġfou": 2065,
      "Ġfilles": 2066,
      "Ġrois": 2067,
      "Ġrare": 2068,
      "Ġdestin": 2069,
      "Ġchang": 2070,
      "chants": 2071,
      "cid": 2072,
      "ĠÃ©tu": 2073,
      "ĠrÃ©c": 2074,
      "Ġquoique": 2075,
      "Ġcherche": 2076,
      "Ġcombat": 2077,
      "Ġcontradi": 2078,
      "Ġperdu": 2079,
      "Ġabsolu": 2080,
      "Ġtransp": 2081,
      "be": 2082,
      "oÃ®t": 2083,
      "roi": 2084,
      "ssent": 2085,
      "suite": 2086,
      "vÃ©s": 2087,
      "Ġdir": 2088,
      "Ġlit": 2089,
      "Ã©ment": 2090,
      "Ġami": 2091,
      "ĠvanitÃ©": 2092,
      "Ġlesquels": 2093,
      "Ġplaire": 2094,
      "Ġlieux": 2095,
      "ultÃ©": 2096,
      "Ġprojet": 2097,
      "Ġart": 2098,
      "Ġpropri": 2099,
      "Ġasse": 2100,
      "Ġcompte": 2101,
      "usement": 2102,
      "Ġvoyez": 2103,
      "attend": 2104,
      "Ġchef": 2105,
      "ribun": 2106,
      "Ġassu": 2107,
      "Ġsensibles": 2108,
      "ĠreprÃ©sent": 2109,
      "ĠmÃ©thode": 2110,
      "cons": 2111,
      "Ġordre": 2112,
      "Ġcal": 2113,
      "Ġmul": 2114,
      "tien": 2115,
      "Ġdix": 2116,
      "Ġdira": 2117,
      "ĠDes": 2118,
      "ĠautoritÃ©": 2119,
      "Ġseuls": 2120,
      "uctions": 2121,
      "Ġaffaires": 2122,
      "Ġtourment": 2123,
      "ĠnÃ©cessairement": 2124,
      "Ġcommencer": 2125,
      "Ġdistinguer": 2126,
      "Ġpaix": 2127,
      "Ġmourir": 2128,
      "Ġtranqu": 2129,
      "ira": 2130,
      "orer": 2131,
      "Ġdoc": 2132,
      "ĠcrÃ©": 2133,
      "Ġat": 2134,
      "Ġfri": 2135,
      "Ġlect": 2136,
      "ind": 2137,
      "indi": 2138,
      "ĠÃ©v": 2139,
      "lesse": 2140,
      "ĠdÃ©b": 2141,
      "Ġsache": 2142,
      "ĠÃªtes": 2143,
      "chement": 2144,
      "Ġarts": 2145,
      "Ġcauses": 2146,
      "Ġsensations": 2147,
      "Ġvoudrois": 2148,
      "ĠindÃ©p": 2149,
      "Ġsitu": 2150,
      "Ġmagistrats": 2151,
      "casion": 2152,
      "Ġpieds": 2153,
      "ĠinconvÃ©n": 2154,
      "ĠComment": 2155,
      "cte": 2156,
      "gure": 2157,
      "hui": 2158,
      "jourd": 2159,
      "oles": 2160,
      "puis": 2161,
      "uy": 2162,
      "Ġ1": 2163,
      "Ġsain": 2164,
      "Ġmer": 2165,
      "Ġru": 2166,
      "isme": 2167,
      "Ġvice": 2168,
      "Ġperf": 2169,
      "clus": 2170,
      "Ġlaiss": 2171,
      "ĠmÃ©tier": 2172,
      "Ġconfi": 2173,
      "ĠÃ¢me": 2174,
      "lÃ©ch": 2175,
      "Ġfran": 2176,
      "Ġterme": 2177,
      "Ġprofit": 2178,
      "ĠdÃ©tail": 2179,
      "Ġsortir": 2180,
      "hommes": 2181,
      "noc": 2182,
      "xes": 2183,
      "Ġouvrage": 2184,
      "rig": 2185,
      "inf": 2186,
      "Ġroy": 2187,
      "Ġtoucher": 2188,
      "Ġconvent": 2189,
      "ĠexÃ©cu": 2190,
      "uisent": 2191,
      "ĠforcÃ©": 2192,
      "prop": 2193,
      "Ġprodi": 2194,
      "Ġoblig": 2195,
      "Ã´tres": 2196,
      "Ġdonnent": 2197,
      "Ġaller": 2198,
      "Ġnaturellement": 2199,
      "Ġsuffis": 2200,
      "ĠÃ©tablis": 2201,
      "Ġtrompe": 2202,
      "ĠrÃ¨gle": 2203,
      "Ġgouverneur": 2204,
      "Ġdiverses": 2205,
      "ocratie": 2206,
      "ulture": 2207,
      "Ġindividu": 2208,
      "exemple": 2209,
      "Ġmilieu": 2210,
      "aÃ¯": 2211,
      "uve": 2212,
      "Ġdavantage": 2213,
      "Ġsouv": 2214,
      "Ġment": 2215,
      "orm": 2216,
      "Ġresse": 2217,
      "aura": 2218,
      "Ġgui": 2219,
      "ĠÃ©m": 2220,
      "cieux": 2221,
      "ĠPrin": 2222,
      "avez": 2223,
      "Ġcommerce": 2224,
      "ĠpremiÃ¨res": 2225,
      "Ġvoulu": 2226,
      "importe": 2227,
      "Ġnourrir": 2228,
      "Ġgarde": 2229,
      "Ġfourn": 2230,
      "ĠmÃ©moire": 2231,
      "mment": 2232,
      "teur": 2233,
      "Ã©re": 2234,
      "reur": 2235,
      "oisir": 2236,
      "Ġaper": 2237,
      "Ġnuit": 2238,
      "aime": 2239,
      "antÃ©": 2240,
      "Ġensuite": 2241,
      "atri": 2242,
      "Ġchoisir": 2243,
      "ĠÃ©tend": 2244,
      "ĠPlus": 2245,
      "ulation": 2246,
      "vement": 2247,
      "Ġconstitu": 2248,
      "Ġparties": 2249,
      "Ġcamp": 2250,
      "esses": 2251,
      "Ġrendent": 2252,
      "Ġconfond": 2253,
      "Ġtravaux": 2254,
      "ĠprÃ©cisÃ©ment": 2255,
      "Ġnaissance": 2256,
      "Ġpauvres": 2257,
      "ĠhonnÃªte": 2258,
      "Ġhonte": 2259,
      "aris": 2260,
      "fait": 2261,
      "Ġz": 2262,
      "ĠpÃ»t": 2263,
      "Ġsus": 2264,
      "ention": 2265,
      "Ġvilles": 2266,
      "tem": 2267,
      "Ġrou": 2268,
      "Ã©tu": 2269,
      "Ã©tude": 2270,
      "ĠEt": 2271,
      "Ġappel": 2272,
      "Ġappris": 2273,
      "cur": 2274,
      "Ġarb": 2275,
      "Ġcomparer": 2276,
      "ĠdÃ©pens": 2277,
      "Ġall": 2278,
      "Ġpersu": 2279,
      "ĠCependant": 2280,
      "Ġregarde": 2281,
      "ĠnÃ©cessaires": 2282,
      "Ġcourage": 2283,
      "ĠUne": 2284,
      "apprendre": 2285,
      "Ġmagistrat": 2286,
      "Ġembarras": 2287,
      "ĠdÃ©termin": 2288,
      "ĠmÃ©dec": 2289,
      "aces": 2290,
      "ote": 2291,
      "Ã©tÃ©s": 2292,
      "onge": 2293,
      "Ġcours": 2294,
      "tiers": 2295,
      "Ġbal": 2296,
      "Ġparfai": 2297,
      "Ġsein": 2298,
      "Ġsuper": 2299,
      "cice": 2300,
      "Ġdivis": 2301,
      "Ġconscience": 2302,
      "Ġavantages": 2303,
      "alitÃ©s": 2304,
      "ĠtempÃ©ra": 2305,
      "administration": 2306,
      "Ġpetite": 2307,
      "Ġjugements": 2308,
      "Ġsubst": 2309,
      "Ġtire": 2310,
      "ĠprÃ©cau": 2311,
      "ĠprÃ©venir": 2312,
      "ĠrÃ©pondre": 2313,
      "Ġmaintenant": 2314,
      "ĠgoÃ»ts": 2315,
      "Ġignor": 2316,
      "ĠmatiÃ¨re": 2317,
      "bu": 2318,
      "bes": 2319,
      "cre": 2320,
      "gles": 2321,
      "tenir": 2322,
      "ĠaisÃ©": 2323,
      "eurer": 2324,
      "rier": 2325,
      "Ġbl": 2326,
      "Ġbarb": 2327,
      "ĠComme": 2328,
      "tesse": 2329,
      "senti": 2330,
      "ĠTou": 2331,
      "Ġsoumis": 2332,
      "Ġdouce": 2333,
      "Ġappro": 2334,
      "Ġann": 2335,
      "Ġpayer": 2336,
      "entement": 2337,
      "Ġimm": 2338,
      "ositÃ©": 2339,
      "Ġnulle": 2340,
      "Ġfigure": 2341,
      "Ġutiles": 2342,
      "Ġsucces": 2343,
      "Ġarriver": 2344,
      "Ġcivil": 2345,
      "ĠagrÃ©able": 2346,
      "imagination": 2347,
      "Ġmutu": 2348,
      "Ġassembl": 2349,
      "ite": 2350,
      "off": 2351,
      "tter": 2352,
      "env": 2353,
      "Ã©di": 2354,
      "ĠsÃ©d": 2355,
      "antir": 2356,
      "Ġmur": 2357,
      "indre": 2358,
      "ellig": 2359,
      "Ġenne": 2360,
      "Ġcependant": 2361,
      "Ġpourra": 2362,
      "ĠgÃª": 2363,
      "ĠdÃ©si": 2364,
      "ĠPuis": 2365,
      "acle": 2366,
      "ĠgrÃ¢": 2367,
      "ĠprÃ©cep": 2368,
      "Ġdeviennent": 2369,
      "Ġprimi": 2370,
      "ĠmisÃ¨re": 2371,
      "assembl": 2372,
      "part": 2373,
      "Ġdemander": 2374,
      "Ġinstru": 2375,
      "Ġcontrat": 2376,
      "Ġnouveau": 2377,
      "Ġconnaissances": 2378,
      "Ġsignes": 2379,
      "Ġfaus": 2380,
      "Ġplupart": 2381,
      "Ġfaiblesse": 2382,
      "gt": 2383,
      "lles": 2384,
      "esclav": 2385,
      "Ġsource": 2386,
      "ĠsantÃ©": 2387,
      "oudre": 2388,
      "Ġnations": 2389,
      "Ġfid": 2390,
      "tit": 2391,
      "issance": 2392,
      "Ã¨de": 2393,
      "Ġpourvu": 2394,
      "ĠpassÃ©": 2395,
      "lique": 2396,
      "ouvrir": 2397,
      "Ġhaut": 2398,
      "Ġfaible": 2399,
      "Ġseroient": 2400,
      "Ġautrement": 2401,
      "Ġlibres": 2402,
      "Ġpartage": 2403,
      "Ġsupporter": 2404,
      "Ġmarcher": 2405,
      "Ġfaisoit": 2406,
      "Ġjouir": 2407,
      "Ġfix": 2408,
      "Ġcrime": 2409,
      "Ġregarder": 2410,
      "Ġgrossi": 2411,
      "Ġuniquement": 2412,
      "ĠPeup": 2413,
      "ĠpropriÃ©tÃ©": 2414,
      "Ġperfection": 2415,
      "tems": 2416,
      "IT": 2417,
      "cles": 2418,
      "cÃ©s": 2419,
      "ime": 2420,
      "oque": 2421,
      "pes": 2422,
      "rÃ©s": 2423,
      "Ġir": 2424,
      "Ġdanger": 2425,
      "Ġmien": 2426,
      "Ġnouve": 2427,
      "Ġtes": 2428,
      "Ġtir": 2429,
      "Ġfun": 2430,
      "Ġvaut": 2431,
      "inÃ©galitÃ©": 2432,
      "isc": 2433,
      "Ġceci": 2434,
      "Ġsupr": 2435,
      "Ġavis": 2436,
      "onnÃ©": 2437,
      "Ġsonger": 2438,
      "Ġconcevoir": 2439,
      "Ġexist": 2440,
      "Ġexcep": 2441,
      "Ġvigueur": 2442,
      "Ġcompter": 2443,
      "Ġsuppos": 2444,
      "Ġfroi": 2445,
      "Ġsuite": 2446,
      "Ġsecret": 2447,
      "tifs": 2448,
      "Ġaimable": 2449,
      "ĠÃ©levÃ©": 2450,
      "Ġclair": 2451,
      "Ġchangement": 2452,
      "Ġflat": 2453,
      "Ġmaxime": 2454,
      "Ġinutile": 2455,
      "ĠsystÃ¨me": 2456,
      "ĠlÃ©gitime": 2457,
      "Ġsituation": 2458,
      "Ġnouveaux": 2459,
      "Emile": 2460,
      "iÃ¨res": 2461,
      "pe": 2462,
      "pÃ©ri": 2463,
      "Âł": 2464,
      "Ġ,": 2465,
      "Ġsouverain": 2466,
      "Ġmens": 2467,
      "Ġtort": 2468,
      "ĠtÃ¢": 2469,
      "Ġtellement": 2470,
      "Ġfonc": 2471,
      "Ġven": 2472,
      "orde": 2473,
      "estes": 2474,
      "raÃ®": 2475,
      "itoyens": 2476,
      "ĠdÃ©cl": 2477,
      "Ġsac": 2478,
      "assent": 2479,
      "Ġdisent": 2480,
      "appar": 2481,
      "Ġpere": 2482,
      "Ġaccoutu": 2483,
      "Ġmanque": 2484,
      "Ġdouleur": 2485,
      "gues": 2486,
      "Ġcourir": 2487,
      "Ġtermes": 2488,
      "ĠsuccÃ¨s": 2489,
      "Ġphilosophie": 2490,
      "Ġmouvements": 2491,
      "Ġrefus": 2492,
      "lication": 2493,
      "Ġphysique": 2494,
      "lut": 2495,
      "nÃ©s": 2496,
      "ensible": 2497,
      "Ã©ch": 2498,
      "orable": 2499,
      "ell": 2500,
      "Ġjal": 2501,
      "aud": 2502,
      "isse": 2503,
      "nemens": 2504,
      "Ġchambre": 2505,
      "Ġhas": 2506,
      "Ġinvent": 2507,
      "aller": 2508,
      "ĠParis": 2509,
      "empl": 2510,
      "Ġpeines": 2511,
      "Ġpuisqu": 2512,
      "Ġpouvant": 2513,
      "ĠvolontÃ©s": 2514,
      "Ġsuppose": 2515,
      "Ġgouverner": 2516,
      "Ġspect": 2517,
      "Ġbouche": 2518,
      "ĠdÃ©truire": 2519,
      "humanitÃ©": 2520,
      "Ġcondition": 2521,
      "Ġgloire": 2522,
      "Ġexactement": 2523,
      "Ġveulent": 2524,
      "ĠPrince": 2525,
      "NE": 2526,
      "hon": 2527,
      "ĠpÃ©ri": 2528,
      "Ġcli": 2529,
      "ĠqualitÃ©s": 2530,
      "Ġdepuis": 2531,
      "ĠmÃ©n": 2532,
      "Ġaujourd": 2533,
      "ares": 2534,
      "Ġdiri": 2535,
      "Ġdigne": 2536,
      "Ġridi": 2537,
      "ulter": 2538,
      "ĠTant": 2539,
      "ĠsimplicitÃ©": 2540,
      "Ġchev": 2541,
      "Ġtels": 2542,
      "Ġhumaines": 2543,
      "pide": 2544,
      "Ġrempli": 2545,
      "aucun": 2546,
      "Ġdangereux": 2547,
      "Ġtyrann": 2548,
      "ĠinconvÃ©nient": 2549,
      "Ġconfiance": 2550,
      "propre": 2551,
      "Ġhasard": 2552,
      "Ġridicu": 2553,
      "ition": 2554,
      "mon": 2555,
      "oci": 2556,
      "ze": 2557,
      "estime": 2558,
      "Ġlux": 2559,
      "ouff": 2560,
      "outer": 2561,
      "Ġfant": 2562,
      "Ġvoi": 2563,
      "Ġvenir": 2564,
      "Ġviennent": 2565,
      "Ġbois": 2566,
      "Ġbut": 2567,
      "Ġpourvoir": 2568,
      "ĠgÃ¢": 2569,
      "Ã©toient": 2570,
      "mitÃ©": 2571,
      "Ġextr": 2572,
      "Ġmach": 2573,
      "Ġdiss": 2574,
      "appro": 2575,
      "aille": 2576,
      "Ġpersonnes": 2577,
      "ĠimmÃ©di": 2578,
      "Ġmoral": 2579,
      "Ġrepro": 2580,
      "entends": 2581,
      "Ã©lever": 2582,
      "Ġsauvage": 2583,
      "ĠcaractÃ¨re": 2584,
      "Ġmultitude": 2585,
      "Ġsuperf": 2586,
      "ĠsuprÃªme": 2587,
      "Ġluxe": 2588,
      "ctement": 2589,
      "moi": 2590,
      "oeil": 2591,
      "Ġouver": 2592,
      "Ġeut": 2593,
      "Ã©lÃ©": 2594,
      "ĠsÃ©par": 2595,
      "Ġaient": 2596,
      "ĠnaÃ®t": 2597,
      "Ġfe": 2598,
      "univers": 2599,
      "Ġlesquelles": 2600,
      "aison": 2601,
      "Ġsubli": 2602,
      "utilitÃ©": 2603,
      "ĠAprÃ¨s": 2604,
      "gnes": 2605,
      "mbler": 2606,
      "exam": 2607,
      "ĠcoÃ»": 2608,
      "ĠsociÃ©tÃ©s": 2609,
      "cert": 2610,
      "ĠrÃ©soudre": 2611,
      "Ġprince": 2612,
      "Ġlongue": 2613,
      "Ġjoug": 2614,
      "ĠrÃ©flÃ©ch": 2615,
      "Ġcrainte": 2616,
      "ĠrÃ¨gles": 2617,
      "ĠÃ´ter": 2618,
      "ĠCela": 2619,
      "Ã©tablir": 2620,
      "ĠlumiÃ¨res": 2621,
      "urope": 2622,
      "ONNE": 2623,
      "Ġcircons": 2624,
      "Ġabsolument": 2625,
      "aj": 2626,
      "cul": 2627,
      "loit": 2628,
      "obli": 2629,
      "vitÃ©": 2630,
      "Ġsoyez": 2631,
      "ĠmÃ¢": 2632,
      "Ġenvers": 2633,
      "Ġres": 2634,
      "Ġram": 2635,
      "Ġbat": 2636,
      "arch": 2637,
      "arrÃª": 2638,
      "ĠÃ©qu": 2639,
      "ray": 2640,
      "lige": 2641,
      "chet": 2642,
      "ĠintÃ©res": 2643,
      "Ġsatis": 2644,
      "Ġtrouvent": 2645,
      "Ġtroisi": 2646,
      "Ġlire": 2647,
      "ĠAn": 2648,
      "ĠmoitiÃ©": 2649,
      "Ã©der": 2650,
      "Ġverra": 2651,
      "Ġespece": 2652,
      "ĠgÃ©nie": 2653,
      "ĠdiffÃ©rentes": 2654,
      "ĠdÃ©fend": 2655,
      "Ġnourrit": 2656,
      "crire": 2657,
      "Ġeffets": 2658,
      "olution": 2659,
      "Ġopin": 2660,
      "Ġmaintenir": 2661,
      "Ġgagner": 2662,
      "Ġclim": 2663,
      "miere": 2664,
      "teurs": 2665,
      "vÃ©e": 2666,
      "Ġlait": 2667,
      "Ġsil": 2668,
      "Ġcris": 2669,
      "Ġmeur": 2670,
      "Ġmol": 2671,
      "ainement": 2672,
      "Ġtiennent": 2673,
      "inter": 2674,
      "Ġjoie": 2675,
      "Ġromp": 2676,
      "ontÃ©": 2677,
      "Ġbour": 2678,
      "endra": 2679,
      "ĠchrÃ©": 2680,
      "ĠsiÃ¨": 2681,
      "accoutu": 2682,
      "ablement": 2683,
      "Ġpuissent": 2684,
      "tinct": 2685,
      "ĠQuelle": 2686,
      "Ġchamp": 2687,
      "ĠdiffÃ©rences": 2688,
      "Ġsecours": 2689,
      "Ġvoisins": 2690,
      "Ġvoudra": 2691,
      "Ġcraindre": 2692,
      "Ġfoibles": 2693,
      "Ġpratique": 2694,
      "aper": 2695,
      "enons": 2696,
      "Ã©cou": 2697,
      "Ġqua": 2698,
      "Ġali": 2699,
      "Ġmil": 2700,
      "Ġtre": 2701,
      "Ġfui": 2702,
      "anter": 2703,
      "cev": 2704,
      "Ġquiconque": 2705,
      "arri": 2706,
      "rages": 2707,
      "agn": 2708,
      "ĠComb": 2709,
      "ĠSpar": 2710,
      "Ġmere": 2711,
      "avance": 2712,
      "veill": 2713,
      "espoir": 2714,
      "espece": 2715,
      "Ġdeviend": 2716,
      "Ġgrandeur": 2717,
      "empire": 2718,
      "Ġentrer": 2719,
      "Ġpremiere": 2720,
      "Ġcommand": 2721,
      "Ã§ant": 2722,
      "Ġcroy": 2723,
      "Ġdonnant": 2724,
      "ĠmaniÃ¨res": 2725,
      "Ġrendu": 2726,
      "ĠrÃ©pons": 2727,
      "Ġconfir": 2728,
      "Ġesti": 2729,
      "Ġagir": 2730,
      "ĠdÃ©lib": 2731,
      "ribu": 2732,
      "Ġnouvelles": 2733,
      "accord": 2734,
      "ĠPolon": 2735,
      "Ġtroub": 2736,
      "ĠmaÃ®tresse": 2737,
      "Ġattention": 2738,
      "ĠCelui": 2739,
      "Ġengage": 2740,
      "Ġvingt": 2741,
      "ay": 2742,
      "aque": 2743,
      "iers": 2744,
      "Ġess": 2745,
      "eng": 2746,
      "ener": 2747,
      "Ġpoi": 2748,
      "Ġcin": 2749,
      "ann": 2750,
      "ĠnÃ´tre": 2751,
      "ĠleÃ§on": 2752,
      "rits": 2753,
      "Ġbas": 2754,
      "issement": 2755,
      "Ġpron": 2756,
      "Ġchem": 2757,
      "cier": 2758,
      "cite": 2759,
      "ĠSu": 2760,
      "ĠSon": 2761,
      "Ġconqu": 2762,
      "avons": 2763,
      "Ġquelqu": 2764,
      "ĠEst": 2765,
      "Ġdevoit": 2766,
      "Ġentier": 2767,
      "Ġproc": 2768,
      "tins": 2769,
      "courir": 2770,
      "Ġpermis": 2771,
      "Ġmanquer": 2772,
      "ĠparticuliÃ¨res": 2773,
      "ĠmÃ©c": 2774,
      "ĠmisÃ©rable": 2775,
      "ĠÃ¢mes": 2776,
      "Ġusur": 2777,
      "Ġusages": 2778,
      "ĠdÃ©lic": 2779,
      "Ġtromper": 2780,
      "ĠtrouvÃ©": 2781,
      "Ġnaissent": 2782,
      "Ġrelations": 2783,
      "Ġaccord": 2784,
      "Ġmauvaise": 2785,
      "Ġphilosophes": 2786,
      "Ġplaindre": 2787,
      "ĠobÃ©ir": 2788,
      "Ġfussent": 2789,
      "Ġcampagne": 2790,
      "Ġsilence": 2791,
      "ĠCombien": 2792,
      "der": 2793,
      "lui": 2794,
      "mÃ©s": 2795,
      "ph": 2796,
      "tances": 2797,
      "Ġos": 2798,
      "Ã©cl": 2799,
      "oubli": 2800,
      "Ġcan": 2801,
      "Ġmanger": 2802,
      "Ġnob": 2803,
      "Ġtribun": 2804,
      "Ġlab": 2805,
      "rions": 2806,
      "rimer": 2807,
      "Ġroute": 2808,
      "Ġunivers": 2809,
      "ĠbÃ¢t": 2810,
      "Ġprennent": 2811,
      "ĠgÃ©": 2812,
      "ouvoir": 2813,
      "Ġred": 2814,
      "Ġtrait": 2815,
      "action": 2816,
      "tern": 2817,
      "dier": 2818,
      "Ġconst": 2819,
      "Ã©gard": 2820,
      "itÃ©s": 2821,
      "Ġvoulez": 2822,
      "ĠtantÃ´t": 2823,
      "Ġvoyag": 2824,
      "Ġcherch": 2825,
      "tÃ©rÃªts": 2826,
      "Ġseconde": 2827,
      "Ġessenti": 2828,
      "paravant": 2829,
      "Ġexemples": 2830,
      "Ġgarantir": 2831,
      "Ġpenchant": 2832,
      "ĠÃ©tablir": 2833,
      "gueil": 2834,
      "Ġcapable": 2835,
      "Ġarrive": 2836,
      "Ġsubstitu": 2837,
      "ĠlÃ©gislation": 2838,
      "ĠrÃ©flexions": 2839,
      "empÃªcher": 2840,
      "ĠzÃ¨le": 2841,
      "ĠtempÃ©rament": 2842,
      "ĠPeuple": 2843,
      "fier": 2844,
      "rup": 2845,
      "sse": 2846,
      "sante": 2847,
      "Ġouv": 2848,
      "Ġdog": 2849,
      "Ġpain": 2850,
      "Ġsomme": 2851,
      "Ġquanti": 2852,
      "Ġpaler": 2853,
      "tivitÃ©": 2854,
      "ĠbontÃ©": 2855,
      "auroit": 2856,
      "Ġpros": 2857,
      "Ġsacri": 2858,
      "Ġdimin": 2859,
      "ĠÃ©taient": 2860,
      "Ġservent": 2861,
      "Ġconsiste": 2862,
      "Ġmalheur": 2863,
      "Ġcorri": 2864,
      "Ġdites": 2865,
      "Ġesprits": 2866,
      "Ġpubliques": 2867,
      "Ġvraiment": 2868,
      "ĠdifficultÃ©s": 2869,
      "Ġnoms": 2870,
      "Ġsortes": 2871,
      "Ġdispu": 2872,
      "ĠFran": 2873,
      "ĠpitiÃ©": 2874,
      "ĠconsidÃ©rer": 2875,
      "Ġmoder": 2876,
      "Ġentendu": 2877,
      "Ġacquis": 2878,
      "instruire": 2879,
      "Ġattentif": 2880,
      "Ġlorsqu": 2881,
      "ĠindiffÃ©r": 2882,
      "ĠindÃ©pend": 2883,
      ",*": 2884,
      "lÃ©e": 2885,
      "th": 2886,
      "Ġstu": 2887,
      "anim": 2888,
      "aign": 2889,
      "aigne": 2890,
      "ĠfÃ©": 2891,
      "Ġfati": 2892,
      "ĠparoÃ®t": 2893,
      "liger": 2894,
      "Ġsexes": 2895,
      "Ġhab": 2896,
      "Ġinstant": 2897,
      "ĠÃ©tern": 2898,
      "Ġdiscip": 2899,
      "Ġenfance": 2900,
      "Ġard": 2901,
      "Ġarti": 2902,
      "ĠdÃ©pl": 2903,
      "Ġinsensible": 2904,
      "ĠmÃ©chant": 2905,
      "Ġsupposer": 2906,
      "Ġsuiv": 2907,
      "Ġvues": 2908,
      "Ġvoudroit": 2909,
      "Ġhonneur": 2910,
      "ĠRomains": 2911,
      "...": 2912,
      "Ġimportante": 2913,
      "Ġorgan": 2914,
      "Ġcivile": 2915,
      "ĠacquÃ©rir": 2916,
      "Ġtombe": 2917,
      "Ġtomber": 2918,
      "Ġinstitutions": 2919,
      "ĠÃ©trangers": 2920,
      "ĠimmÃ©dia": 2921,
      "Ġquatre": 2922,
      "Europe": 2923,
      "jec": 2924,
      "oeu": 2925,
      "Ġlou": 2926,
      "once": 2927,
      "rets": 2928,
      "Ġquant": 2929,
      "erai": 2930,
      "oigne": 2931,
      "Ġdegr": 2932,
      "entendre": 2933,
      "Ġtri": 2934,
      "Ġlar": 2935,
      "rible": 2936,
      "ination": 2937,
      "Ġillus": 2938,
      "Ġprouver": 2939,
      "Ġchim": 2940,
      "ĠchaÃ®": 2941,
      "itable": 2942,
      "itude": 2943,
      "Ġavan": 2944,
      "ĠdÃ©cid": 2945,
      "Ġdure": 2946,
      "Ġfaite": 2947,
      "abus": 2948,
      "Ġorig": 2949,
      "amb": 2950,
      "ĠPh": 2951,
      "Ġformes": 2952,
      "aste": 2953,
      "raires": 2954,
      "rÃ©es": 2955,
      "Ġentr": 2956,
      "Ġsole": 2957,
      "Ġdouc": 2958,
      "ĠbeautÃ©": 2959,
      "Ġpersonn": 2960,
      "Ġsuivant": 2961,
      "Ġrenoncer": 2962,
      "Ġvaincre": 2963,
      "Ġquestions": 2964,
      "ĠprÃ©fÃ©rence": 2965,
      "Ġfaveur": 2966,
      "Ġressort": 2967,
      "Ġobservations": 2968,
      "ĠÃ©clair": 2969,
      "Ġraisonnement": 2970,
      "Ġesclaves": 2971,
      "Ġnourrice": 2972,
      "Ġexige": 2973,
      "Ġrarement": 2974,
      "ĠÃ©viter": 2975,
      "ĠdÃ©tails": 2976,
      "ĠgrÃ¢ce": 2977,
      "ĠdegrÃ©s": 2978,
      "ES": 2979,
      "jus": 2980,
      "mÃ©e": 2981,
      "Ġscience": 2982,
      "Ġculte": 2983,
      "Ġmyst": 2984,
      "Ġnuire": 2985,
      "entrer": 2986,
      "Ġtendre": 2987,
      "Ġvont": 2988,
      "Ġpatri": 2989,
      "rist": 2990,
      "ustrie": 2991,
      "aise": 2992,
      "augment": 2993,
      "Ġparais": 2994,
      "Ġplaces": 2995,
      "Ġpleurer": 2996,
      "Ã¨tes": 2997,
      "ĠÃ©vÃ©": 2998,
      "Ġserez": 2999,
      "ouvre": 3000,
      "Ġchoisi": 3001,
      "itation": 3002,
      "Ġaveu": 3003,
      "Ġrejet": 3004,
      "Ġfaim": 3005,
      "ensÃ©": 3006,
      "devant": 3007,
      "Ã©tendre": 3008,
      "Ġserois": 3009,
      "Ġseraient": 3010,
      "ĠformÃ©": 3011,
      "Ã©ro": 3012,
      "Ġaction": 3013,
      "exc": 3014,
      "ĠGouver": 3015,
      "Ġpouvoient": 3016,
      "Ġrapporte": 3017,
      "Ġvoyage": 3018,
      "Ġquoiqu": 3019,
      "Ġfruit": 3020,
      "Ġestime": 3021,
      "import": 3022,
      "Ġtravailler": 3023,
      "ĠdifficultÃ©": 3024,
      "Ġinstructions": 3025,
      "Ġnouvelle": 3026,
      "Ġcertains": 3027,
      "Ġnoble": 3028,
      "tÃ©rieur": 3029,
      "Ġsignif": 3030,
      "Ġphilosophe": 3031,
      "Ġinutiles": 3032,
      "Ġdomes": 3033,
      "ĠempÃªcher": 3034,
      "Ġconditions": 3035,
      "Ġoppos": 3036,
      "Ġenseign": 3037,
      "Ġtriste": 3038,
      "Ġpurement": 3039,
      "Ġerreurs": 3040,
      "Ġopinions": 3041,
      "ĠdÃ©licat": 3042,
      "ET": 3043,
      "crit": 3044,
      "gra": 3045,
      "heure": 3046,
      "iques": 3047,
      "rob": 3048,
      "Ġpais": 3049,
      "ĠpÃ©r": 3050,
      "ĠsÃ©nat": 3051,
      "ĠsÃ©v": 3052,
      "Ġmois": 3053,
      "Ġvoient": 3054,
      "omie": 3055,
      "ĠbÃªtes": 3056,
      "Ġprol": 3057,
      "Ġpress": 3058,
      "ĠÃ©cri": 3059,
      "ĠÃ©vid": 3060,
      "chi": 3061,
      "ĠintÃ©rÃªts": 3062,
      "Ġcontemp": 3063,
      "Ã¨rement": 3064,
      "acles": 3065,
      "tera": 3066,
      "ĠrÃ©elle": 3067,
      "Ġquels": 3068,
      "Ġdisoit": 3069,
      "ĠMont": 3070,
      "airement": 3071,
      "Ġraisonner": 3072,
      "Ġactes": 3073,
      "Ġactif": 3074,
      "Ġasserv": 3075,
      "obs": 3076,
      "Ġtravers": 3077,
      "Ġnaturels": 3078,
      "Ġferme": 3079,
      "Ġaffaire": 3080,
      "Ġposses": 3081,
      "ĠrÃ©ser": 3082,
      "ĠexpÃ©rience": 3083,
      "Ġnourris": 3084,
      "ĠprÃ©voy": 3085,
      "Ġlangue": 3086,
      "ĠdÃ©tour": 3087,
      "Ġtroupes": 3088,
      "Ġrichesse": 3089,
      "Ġtalents": 3090,
      "Ġpied": 3091,
      "Ġpareil": 3092,
      "Ġenvir": 3093,
      "ĠcuriositÃ©": 3094,
      "Ġcontrainte": 3095,
      "Ġtranquille": 3096,
      "nocence": 3097,
      "Ġpersuad": 3098,
      "ĠToutes": 3099,
      "Ġinstruments": 3100,
      "Ġsatisf": 3101,
      "Ġfuir": 3102,
      "ĠSparte": 3103,
      "ĠquantitÃ©": 3104,
      "Ġsoleil": 3105,
      "ament": 3106,
      "gres": 3107,
      "rance": 3108,
      "vec": 3109,
      "Ġsois": 3110,
      "eroit": 3111,
      "Ġaise": 3112,
      "ĠmÃ¨res": 3113,
      "ĠnÃ´tres": 3114,
      "aie": 3115,
      "Ġtelles": 3116,
      "ĠthÃ©": 3117,
      "Ġverre": 3118,
      "Ġviens": 3119,
      "Ġlever": 3120,
      "Ġbelle": 3121,
      "Ġparole": 3122,
      "onsi": 3123,
      "Ġpassent": 3124,
      "Ġgagne": 3125,
      "ration": 3126,
      "siez": 3127,
      "ouvÃ©": 3128,
      "Ġsix": 3129,
      "Ġexclus": 3130,
      "Ġvivant": 3131,
      "espÃ¨ce": 3132,
      "apper": 3133,
      "Ġprise": 3134,
      "Ã©rant": 3135,
      "exi": 3136,
      "Ġferoit": 3137,
      "Ġpetites": 3138,
      "Ġvoyons": 3139,
      "Ġregret": 3140,
      "Ġsaura": 3141,
      "ĠÃ©gaux": 3142,
      "ĠsupplÃ©": 3143,
      "Ġmarch": 3144,
      "Ġcouronne": 3145,
      "Ġinconn": 3146,
      "Ġcharge": 3147,
      "ĠdÃ©pendance": 3148,
      "Ġbornes": 3149,
      "Ġordres": 3150,
      "Ġintellig": 3151,
      "aucune": 3152,
      "Ġconvenable": 3153,
      "Ġexaminer": 3154,
      "ĠsÃ»rement": 3155,
      "ĠtÃ©moign": 3156,
      "ĠsouverainetÃ©": 3157,
      "Ġrobuste": 3158,
      "Ġcomprendre": 3159,
      "Ġexistence": 3160,
      "Ġmensonge": 3161,
      "Ġfantais": 3162,
      "Ġchemin": 3163,
      "ĠbÃ¢ton": 3164,
      "cs": 3165,
      "eaux": 3166,
      "sons": 3167,
      "ument": 3168,
      "Ġ(": 3169,
      "Ġdois": 3170,
      "Ġlis": 3171,
      "Ġpur": 3172,
      "ĠpÃ¨res": 3173,
      "ĠsÃ©": 3174,
      "oue": 3175,
      "erm": 3176,
      "ert": 3177,
      "Ġamb": 3178,
      "Ġmi": 3179,
      "Ġfol": 3180,
      "Ġfaux": 3181,
      "Ġfier": 3182,
      "Ġve": 3183,
      "tine": 3184,
      "orreur": 3185,
      "aisons": 3186,
      "Ġrenf": 3187,
      "Ġdess": 3188,
      "Ġauront": 3189,
      "Ġbi": 3190,
      "Ġbra": 3191,
      "autÃ©": 3192,
      "Ġparents": 3193,
      "Ġquitter": 3194,
      "Ġpassi": 3195,
      "rable": 3196,
      "ateurs": 3197,
      "ala": 3198,
      "ami": 3199,
      "Ã©tr": 3200,
      "Ġserait": 3201,
      "ĠPatri": 3202,
      "avoient": 3203,
      "ulg": 3204,
      "Ġdistance": 3205,
      "Ã¢ti": 3206,
      "Ã¢tre": 3207,
      "Ġdevroit": 3208,
      "cuper": 3209,
      "Ġetc": 3210,
      "Ġprovin": 3211,
      "Ġobs": 3212,
      "ardin": 3213,
      "ĠToute": 3214,
      "istres": 3215,
      "Ġperp": 3216,
      "ĠdÃ©pra": 3217,
      "Ġnaturelles": 3218,
      "atif": 3219,
      "adresse": 3220,
      "institution": 3221,
      "ĠdiffÃ©rent": 3222,
      "ĠdiffÃ©rens": 3223,
      "ĠrÃ©sister": 3224,
      "ĠdÃ©fendre": 3225,
      "Ġcercle": 3226,
      "ĠfacilitÃ©": 3227,
      "Ġfondament": 3228,
      "ĠprÃ©cÃ©d": 3229,
      "Ġsouffre": 3230,
      "Ã©lÃ¨ve": 3231,
      "pire": 3232,
      "Ġconduire": 3233,
      "Ġsucc": 3234,
      "Ġcraint": 3235,
      "Ġmeilleure": 3236,
      "ĠrÃ©gler": 3237,
      "Ġpromet": 3238,
      "Ġvisage": 3239,
      "Ġremarquer": 3240,
      "Ġimagination": 3241,
      "ĠprÃªt": 3242,
      "Ġlivrer": 3243,
      "Ġesclave": 3244,
      "Ġsolide": 3245,
      "ĠÃ©loignÃ©": 3246,
      "Ġobserver": 3247,
      "ennui": 3248,
      "Ġsubstance": 3249,
      "ITE": 3250,
      "Ġspectacle": 3251,
      "Ġridicule": 3252,
      "Ġsublime": 3253,
      "Ġpoids": 3254,
      "ĠGouvernemens": 3255,
      "onsieur": 3256,
      "soit": 3257,
      "Åĵ": 3258,
      "Ġpous": 3259,
      "Ġpop": 3260,
      "Ġfurent": 3261,
      "Ġvend": 3262,
      "Ġvains": 3263,
      "Ġvoie": 3264,
      "rie": 3265,
      "Ġpleurs": 3266,
      "arque": 3267,
      "lit": 3268,
      "aton": 3269,
      "ĠsupÃ©ri": 3270,
      "Ġdur": 3271,
      "Ġreti": 3272,
      "Ġretr": 3273,
      "ĠCon": 3274,
      "ĠSauv": 3275,
      "cess": 3276,
      "Ġrire": 3277,
      "ĠPl": 3278,
      "ĠPET": 3279,
      "ĠrÃ©ussi": 3280,
      "Ġcesser": 3281,
      "Ġforte": 3282,
      "Ġconsol": 3283,
      "raite": 3284,
      "ĠMa": 3285,
      "ĠAvec": 3286,
      "Ã©rance": 3287,
      "ondance": 3288,
      "Ġdouleurs": 3289,
      "Ġdirectement": 3290,
      "occup": 3291,
      "Ġlaissez": 3292,
      "Ġancien": 3293,
      "Ġattendre": 3294,
      "Ġconviennent": 3295,
      "ĠmÃ©chants": 3296,
      "Ġposs": 3297,
      "Ġportent": 3298,
      "ĠdÃ©sordre": 3299,
      "lissement": 3300,
      "Ġbruit": 3301,
      "olutions": 3302,
      "ĠBONNE": 3303,
      "Ġmariage": 3304,
      "Ġsubsister": 3305,
      "Ġfaloit": 3306,
      "Ġressource": 3307,
      "ĠreÃ§oit": 3308,
      "Ġconcours": 3309,
      "Ġattach": 3310,
      "Ġtalent": 3311,
      "ĠEtats": 3312,
      "Ġensemble": 3313,
      "ĠrÃ©flexion": 3314,
      "ĠobligÃ©": 3315,
      "ĠprÃ©cautions": 3316,
      "Ġmurm": 3317,
      "Ġfausse": 3318,
      "Ġjalous": 3319,
      "Ġresser": 3320,
      "ĠimmÃ©diatement": 3321,
      "Ġdouceur": 3322,
      "ĠPETITE": 3323,
      "ame": 3324,
      "ig": 3325,
      "mant": 3326,
      "pect": 3327,
      "uves": 3328,
      "ĠdÃ»": 3329,
      "Ġpis": 3330,
      "reuve": 3331,
      "Ġatte": 3332,
      "Ġvais": 3333,
      "ĠvÃ´tre": 3334,
      "unes": 3335,
      "ĠparlÃ©": 3336,
      "istre": 3337,
      "Ã¨ces": 3338,
      "ĠÃ©pr": 3339,
      "Ġchau": 3340,
      "Ġhaine": 3341,
      "chez": 3342,
      "ĠinÃ©v": 3343,
      "enser": 3344,
      "ensuit": 3345,
      "Ġsigne": 3346,
      "ĠSa": 3347,
      "Ġextra": 3348,
      "ĠrÃ©ellement": 3349,
      "ĠDu": 3350,
      "Ġdistri": 3351,
      "ĠEh": 3352,
      "Ġautrui": 3353,
      "ĠprÃ©voir": 3354,
      "appelle": 3355,
      "emain": 3356,
      "ĠentiÃ¨re": 3357,
      "Ġprob": 3358,
      "Ġmode": 3359,
      "Ġcommis": 3360,
      "aill": 3361,
      "Ġsoup": 3362,
      "ĠDiÃ©": 3363,
      "ades": 3364,
      "Ġvoyages": 3365,
      "ĠgÃ©nÃ©rales": 3366,
      "Ġempire": 3367,
      "Ġtourne": 3368,
      "Ġlongs": 3369,
      "Ġcheval": 3370,
      "Ġpensent": 3371,
      "Ġinstruit": 3372,
      "ĠÃ©lever": 3373,
      "Ġoccasion": 3374,
      "Ġcapri": 3375,
      "Ġtraiter": 3376,
      "ĠNonces": 3377,
      "ĠÃ©car": 3378,
      "ĠdÃ©go": 3379,
      "Ġsinc": 3380,
      "Ġremarque": 3381,
      "Ġsold": 3382,
      "Ġplein": 3383,
      "Ġrisque": 3384,
      "Ġmutuellement": 3385,
      "ĠrÃ©ponse": 3386,
      "Ġpaisible": 3387,
      "fais": 3388,
      "hors": 3389,
      "ices": 3390,
      "iver": 3391,
      "ibles": 3392,
      "lÃ©s": 3393,
      "oris": 3394,
      "ule": 3395,
      "uff": 3396,
      "esti": 3397,
      "Ġliens": 3398,
      "ontiers": 3399,
      "Ġsout": 3400,
      "ĠsÃ©p": 3401,
      "Ġsiens": 3402,
      "reuse": 3403,
      "ĠdegrÃ©": 3404,
      "ĠmÃ¨ne": 3405,
      "Ġvo": 3406,
      "ĠvÃ©cu": 3407,
      "riser": 3408,
      "uise": 3409,
      "Ġenn": 3410,
      "Ġbais": 3411,
      "lier": 3412,
      "endemain": 3413,
      "Ġinqui": 3414,
      "aler": 3415,
      "auteur": 3416,
      "ĠÃ©tait": 3417,
      "ĠPala": 3418,
      "terre": 3419,
      "ĠrÃ©gner": 3420,
      "uiser": 3421,
      "Ġmas": 3422,
      "ĠIn": 3423,
      "ĠMal": 3424,
      "Ã´ne": 3425,
      "ĠAussi": 3426,
      "ĠprÃ©par": 3427,
      "Ġobtenir": 3428,
      "Ġpuissant": 3429,
      "ĠarrÃª": 3430,
      "Ġassi": 3431,
      "ĠTel": 3432,
      "Ġmanier": 3433,
      "Ġsot": 3434,
      "ĠVou": 3435,
      "Ġvolup": 3436,
      "Ġvolontiers": 3437,
      "Ġsoumettre": 3438,
      "ĠaltÃ©": 3439,
      "Ġinstitution": 3440,
      "Ġmarqu": 3441,
      "Ġmarche": 3442,
      "Ġfruits": 3443,
      "attention": 3444,
      "Ġincomp": 3445,
      "Ġuser": 3446,
      "ĠpremiÃ¨rement": 3447,
      "ositions": 3448,
      "areil": 3449,
      "Ġbrill": 3450,
      "Ġpenchants": 3451,
      "ĠÃ©levÃ©s": 3452,
      "Ġnouvel": 3453,
      "Ġanimal": 3454,
      "Ġhonor": 3455,
      "Ġordinaire": 3456,
      "Ġemployer": 3457,
      "ĠreÃ§u": 3458,
      "Ġrecherches": 3459,
      "Ġservice": 3460,
      "ĠchangÃ©": 3461,
      "ĠÃ©tudier": 3462,
      "ĠassurÃ©": 3463,
      "Ġassujet": 3464,
      "Ġarbit": 3465,
      "Ġsuccessi": 3466,
      "esclavage": 3467,
      "Ġfuneste": 3468,
      "Ġfroid": 3469,
      "acitÃ©": 3470,
      "bran": 3471,
      "cir": 3472,
      "Ġlendemain": 3473,
      "Ġpol": 3474,
      "Ġcrai": 3475,
      "ancer": 3476,
      "oise": 3477,
      "Ġmus": 3478,
      "Ġfonde": 3479,
      "Ġvaine": 3480,
      "ric": 3481,
      "eures": 3482,
      "Ġend": 3483,
      "Ġplan": 3484,
      "Ġpromp": 3485,
      "liqu": 3486,
      "ressions": 3487,
      "ends": 3488,
      "ĠCons": 3489,
      "ĠCeux": 3490,
      "ette": 3491,
      "acqu": 3492,
      "Ġauxquels": 3493,
      "tures": 3494,
      "ĠgrÃ©": 3495,
      "ĠAvant": 3496,
      "Ã©rables": 3497,
      "ĠQuant": 3498,
      "Ġfemelle": 3499,
      "omph": 3500,
      "Ġpouvons": 3501,
      "occasion": 3502,
      "Ġaband": 3503,
      "Ġconvain": 3504,
      "ĠinsÃ©par": 3505,
      "ication": 3506,
      "Ġmets": 3507,
      "Ġcoups": 3508,
      "Ġpublie": 3509,
      "olie": 3510,
      "Ġguer": 3511,
      "Ġterres": 3512,
      "Ġtrouvera": 3513,
      "assurer": 3514,
      "ĠdÃ©liv": 3515,
      "ribus": 3516,
      "ciences": 3517,
      "Ġremplis": 3518,
      "Ġcommencent": 3519,
      "Ġimportant": 3520,
      "Ġcoupable": 3521,
      "ĠÃ©tranger": 3522,
      "Ġexercice": 3523,
      "Ġsubsistance": 3524,
      "ĠtraitÃ©": 3525,
      "Ġheureuse": 3526,
      "Ã©lection": 3527,
      "Ġviolence": 3528,
      "ĠnÃ©glig": 3529,
      "Ġrespecter": 3530,
      "ĠpÃ©nible": 3531,
      "Ġajoute": 3532,
      "Ġcertaines": 3533,
      "Ġsauvages": 3534,
      "obÃ©ir": 3535,
      "ĠrÃ©comp": 3536,
      "Ġatti": 3537,
      "Ġconvention": 3538,
      "Ġparfaitement": 3539,
      "ÂłĊ": 3540,
      "Ġfonctions": 3541,
      "Ġtyrannie": 3542,
      "Ġcinq": 3543,
      "Ġnoblesse": 3544,
      "ĠprÃ©voyance": 3545,
      "gi": 3546,
      "mine": 3547,
      "oqu": 3548,
      "voit": 3549,
      "xte": 3550,
      "Ġden": 3551,
      "Ġsoir": 3552,
      "Ġsciences": 3553,
      "Ġculture": 3554,
      "ĠtÃ¢che": 3555,
      "Ġfre": 3556,
      "Ġpacte": 3557,
      "ources": 3558,
      "Ġjoint": 3559,
      "Ġrom": 3560,
      "Ġrassembl": 3561,
      "onter": 3562,
      "Ġdesp": 3563,
      "ĠauprÃ¨s": 3564,
      "Ġbeaux": 3565,
      "Ġpard": 3566,
      "ĠÃ©par": 3567,
      "sibles": 3568,
      "endroit": 3569,
      "chir": 3570,
      "Ġavait": 3571,
      "Ġinv": 3572,
      "ĠSur": 3573,
      "Ġdignes": 3574,
      "ĠconÃ§oit": 3575,
      "acer": 3576,
      "avoue": 3577,
      "Ġforment": 3578,
      "ĠforÃª": 3579,
      "Ġdise": 3580,
      "ĠprÃ©p": 3581,
      "emens": 3582,
      "Ġdevenu": 3583,
      "Ġfautes": 3584,
      "Ġpriv": 3585,
      "Ġcroyez": 3586,
      "Ġarra": 3587,
      "Ġarbre": 3588,
      "Ġpropose": 3589,
      "tines": 3590,
      "Ġconnu": 3591,
      "Ġperte": 3592,
      "Ġcacher": 3593,
      "ĠVoyez": 3594,
      "ailli": 3595,
      "Ġsoul": 3596,
      "ĠRien": 3597,
      "Ġrappro": 3598,
      "Ġfortes": 3599,
      "Ġrendant": 3600,
      "ĠÃ©tats": 3601,
      "ĠrÃ©sulte": 3602,
      "Ġadmi": 3603,
      "Ġservitude": 3604,
      "Ġtitre": 3605,
      "Ġcourt": 3606,
      "Ġcharme": 3607,
      "Ġfigu": 3608,
      "tisme": 3609,
      "ĠFrance": 3610,
      "ĠconsidÃ©rÃ©": 3611,
      "Ġvaines": 3612,
      "Ġrevenir": 3613,
      "Ġfoible": 3614,
      "ĠrÃ¨gne": 3615,
      "ĠconsÃ©quence": 3616,
      "Ġabsol": 3617,
      "Ġapparence": 3618,
      "Ġappartient": 3619,
      "Ġtraits": 3620,
      "ĠsensibilitÃ©": 3621,
      "ĠagrÃ©ables": 3622,
      "ĠÃ©gards": 3623,
      "ĠsÃ»retÃ©": 3624,
      "Ġpleine": 3625,
      "Ġcombattre": 3626,
      "Ġfrip": 3627,
      "Ġressembl": 3628,
      "Ġmachine": 3629,
      "ĠmÃ¢le": 3630,
      "Ġcommander": 3631,
      "Ġtriomph": 3632,
      "Ġlarmes": 3633,
      "Ġpossession": 3634,
      "MI": 3635,
      "ke": 3636,
      "lois": 3637,
      "Ġoisi": 3638,
      "Ġcab": 3639,
      "ĠqualitÃ©": 3640,
      "Ġame": 3641,
      "tives": 3642,
      "inqui": 3643,
      "ontest": 3644,
      "Ġauparavant": 3645,
      "Ġbles": 3646,
      "Ġbelles": 3647,
      "Ġpours": 3648,
      "chesses": 3649,
      "onnent": 3650,
      "Ġsalut": 3651,
      "ĠLeur": 3652,
      "cices": 3653,
      "cipr": 3654,
      "Ġoutre": 3655,
      "Ġbienfais": 3656,
      "Ã©ter": 3657,
      "Ġrichesses": 3658,
      "ĠrÃ©cipr": 3659,
      "ouvert": 3660,
      "ĠDieux": 3661,
      "Ġdisant": 3662,
      "Ġvic": 3663,
      "Ġobst": 3664,
      "ordinaire": 3665,
      "Ġsentent": 3666,
      "Ġimposer": 3667,
      "Ġproposer": 3668,
      "ĠTu": 3669,
      "Ġcaus": 3670,
      "Ġmange": 3671,
      "obser": 3672,
      "illard": 3673,
      "Ġregle": 3674,
      "ĠmÃ©di": 3675,
      "Ġimiter": 3676,
      "Ġsubju": 3677,
      "Ġadop": 3678,
      "ĠprÃ©sente": 3679,
      "Ġcommunes": 3680,
      "Ġdistinction": 3681,
      "Ġdistingue": 3682,
      "Ġindis": 3683,
      "Ġmembre": 3684,
      "Ġlangues": 3685,
      "ĠhonnÃªtes": 3686,
      "ĠChacun": 3687,
      "Ġhabitu": 3688,
      "Ġhabitude": 3689,
      "Ġeussent": 3690,
      "Ġmalheure": 3691,
      "Ġnote": 3692,
      "honnÃªte": 3693,
      "Ġrefuser": 3694,
      "Ġemploy": 3695,
      "humain": 3696,
      "Ġtalens": 3697,
      "Ġpublics": 3698,
      "Ġservices": 3699,
      "Ġaugmente": 3700,
      "ĠÃ©couter": 3701,
      "embarras": 3702,
      "Ġcontradiction": 3703,
      "ĠexÃ©cutive": 3704,
      "Ġsusp": 3705,
      "Ġennemis": 3706,
      "Ġflatter": 3707,
      "ĠcoÃ»te": 3708,
      "Ġcirconstances": 3709,
      "ĠsiÃ¨cle": 3710,
      "Ġdogmes": 3711,
      "Ġinsensiblement": 3712,
      "Ġveille": 3713,
      "EA": 3714,
      "gts": 3715,
      "ots": 3716,
      "otisme": 3717,
      "pit": 3718,
      "sp": 3719,
      "sÃ©s": 3720,
      "zar": 3721,
      "Ġant": 3722,
      "enue": 3723,
      "Ġpes": 3724,
      "queur": 3725,
      "Ġaill": 3726,
      "Ġmour": 3727,
      "ĠfÃ¢": 3728,
      "Ġfables": 3729,
      "union": 3730,
      "ĠbÃªte": 3731,
      "Ġquitte": 3732,
      "ĠhÃ¢": 3733,
      "agine": 3734,
      "agnes": 3735,
      "Ġreb": 3736,
      "Ġrecevoir": 3737,
      "ĠLoc": 3738,
      "eci": 3739,
      "eces": 3740,
      "Ġconcur": 3741,
      "Ġconcert": 3742,
      "ĠÃ©touff": 3743,
      "avis": 3744,
      "Ġquelles": 3745,
      "Ġconsentement": 3746,
      "Ġcontraires": 3747,
      "Ġdevint": 3748,
      "Ġpreuve": 3749,
      "ords": 3750,
      "Ã§a": 3751,
      "ĠcoÃ»t": 3752,
      "ĠTribus": 3753,
      "ĠNos": 3754,
      "Ġjuges": 3755,
      "usements": 3756,
      "Ġconvenir": 3757,
      "Ġprescri": 3758,
      "Ġvouloit": 3759,
      "Ġdonnez": 3760,
      "ĠguÃ©rir": 3761,
      "Ġtimi": 3762,
      "Ġexpliquer": 3763,
      "Ġvoisin": 3764,
      "Ġincontest": 3765,
      "Ġvertueux": 3766,
      "cepti": 3767,
      "ception": 3768,
      "ĠgarÃ§ons": 3769,
      "ĠrelÃ¢che": 3770,
      "Ġhabitans": 3771,
      "ĠvÃ©ritablement": 3772,
      "Ġmauvaises": 3773,
      "ĠderniÃ¨re": 3774,
      "instrument": 3775,
      "gleterre": 3776,
      "Ġimaginer": 3777,
      "luence": 3778,
      "Ġcoll": 3779,
      "attachement": 3780,
      "ĠtentÃ©": 3781,
      "Ġsurpris": 3782,
      "uropÃ©": 3783,
      "Ġgarder": 3784,
      "ĠfrÃ©qu": 3785,
      "Ġchangent": 3786,
      "Ġfriv": 3787,
      "ĠprÃ©ceptes": 3788,
      "monie": 3789,
      "Ġvoici": 3790,
      "ĠchrÃ©tiens": 3791,
      "Ġmilit": 3792,
      "Ġtroubler": 3793,
      "Ġusurp": 3794,
      "justice": 3795,
      "ĠÃ©vÃ©nement": 3796,
      "ĠrÃ©serve": 3797,
      "ĠVoulez": 3798,
      "ĠLocke": 3799,
      "RE": 3800,
      "ate": 3801,
      "ase": 3802,
      "cence": 3803,
      "du": 3804,
      "lou": 3805,
      "ĠdÃ®": 3806,
      "Ġput": 3807,
      "Ã©litÃ©": 3808,
      "onger": 3809,
      "Ġsy": 3810,
      "ĠcÃ©l": 3811,
      "oires": 3812,
      "entraÃ®": 3813,
      "eusement": 3814,
      "Ġfers": 3815,
      "ĠfÃ©ro": 3816,
      "Ġvulg": 3817,
      "unitÃ©": 3818,
      "rim": 3819,
      "innocence": 3820,
      "estr": 3821,
      "Ġjardin": 3822,
      "mett": 3823,
      "Ġrac": 3824,
      "ĠparaÃ®tre": 3825,
      "Ġparlant": 3826,
      "Ã¨ge": 3827,
      "Ġprud": 3828,
      "Ġtouche": 3829,
      "agÃ©": 3830,
      "agric": 3831,
      "ĠdÃ©ri": 3832,
      "iroit": 3833,
      "Ġsavez": 3834,
      "ĠLE": 3835,
      "ĠCitoyens": 3836,
      "altÃ©": 3837,
      "aines": 3838,
      "acte": 3839,
      "agement": 3840,
      "Ġauteur": 3841,
      "Ã´ter": 3842,
      "Ġseules": 3843,
      "ĠprÃ©cip": 3844,
      "Ã©ner": 3845,
      "Ġmodi": 3846,
      "Ġmotif": 3847,
      "Ġmodes": 3848,
      "Ã©rÃ©s": 3849,
      "Ġactu": 3850,
      "Ġarmes": 3851,
      "ĠOui": 3852,
      "umer": 3853,
      "Ġcomplais": 3854,
      "Ġjudi": 3855,
      "ĠaussitÃ´t": 3856,
      "Ġpouvez": 3857,
      "occuper": 3858,
      "Ġlaissant": 3859,
      "Ġabst": 3860,
      "gnez": 3861,
      "Ġconviens": 3862,
      "instinct": 3863,
      "Ġmarque": 3864,
      "Ġmarquer": 3865,
      "Ġpaysans": 3866,
      "trod": 3867,
      "Ġtourner": 3868,
      "Ġsuffrages": 3869,
      "ĠchargÃ©": 3870,
      "Ġpolitiques": 3871,
      "Ġsortant": 3872,
      "ĠÃītat": 3873,
      "Ġtrouvant": 3874,
      "Ġrelative": 3875,
      "ĠprÃ©judi": 3876,
      "ĠÃ©poux": 3877,
      "ĠconsÃ©quences": 3878,
      "Ġcapables": 3879,
      "ĠopÃ©rations": 3880,
      "Ġexercices": 3881,
      "Ġfavori": 3882,
      "uption": 3883,
      "Ġinterval": 3884,
      "Ġsinon": 3885,
      "Ġplaint": 3886,
      "ĠlÃ©gislative": 3887,
      "ĠdÃ©domm": 3888,
      "ĠdÃ©termine": 3889,
      "Ġraisonnable": 3890,
      "obÃ©issance": 3891,
      "ĠrÃ©volutions": 3892,
      "exercice": 3893,
      "Ġaffections": 3894,
      "Ġmultiplier": 3895,
      "ĠassemblÃ©es": 3896,
      "ĠgÃªne": 3897,
      "Ġfixer": 3898,
      "approche": 3899,
      "Ġsuperflu": 3900,
      "Ġsatisfaire": 3901,
      "Ġverrez": 3902,
      "Ġfigures": 3903,
      "agriculture": 3904,
      "QU": 3905,
      "eme": 3906,
      "odi": 3907,
      "peu": 3908,
      "ttre": 3909,
      "Ġer": 3910,
      "ĠlÃ¢che": 3911,
      "Ġpo": 3912,
      "Ã©si": 3913,
      "ani": 3914,
      "anche": 3915,
      "Ġmat": 3916,
      "Ġmang": 3917,
      "Ġfure": 3918,
      "Ġfassent": 3919,
      "ĠvÃ©g": 3920,
      "Ġvill": 3921,
      "times": 3922,
      "riez": 3923,
      "usion": 3924,
      "intÃ©res": 3925,
      "orgueil": 3926,
      "ĠrÃª": 3927,
      "ceau": 3928,
      "Ġparois": 3929,
      "Ġparure": 3930,
      "Ġparlent": 3931,
      "tÃ©es": 3932,
      "sibilitÃ©": 3933,
      "ress": 3934,
      "ĠchÃ¢ti": 3935,
      "chons": 3936,
      "itÃ´t": 3937,
      "ĠdÃ©rob": 3938,
      "Ġrebu": 3939,
      "Ġincess": 3940,
      "andre": 3941,
      "onnÃ©s": 3942,
      "ĠLoin": 3943,
      "ĠSitÃ´t": 3944,
      "Ġexiste": 3945,
      "Ġforcer": 3946,
      "ĠforcÃ©s": 3947,
      "ĠEuropÃ©": 3948,
      "Ġvieux": 3949,
      "Ġvive": 3950,
      "Ã©ritÃ©": 3951,
      "Ġauteurs": 3952,
      "ĠAh": 3953,
      "onnez": 3954,
      "ĠprÃ©te": 3955,
      "appel": 3956,
      "angers": 3957,
      "Ġpreuves": 3958,
      "Ġprit": 3959,
      "Ġcommande": 3960,
      "urs": 3961,
      "ĠOu": 3962,
      "Ġvieilles": 3963,
      "ĠGr": 3964,
      "Ġdirection": 3965,
      "Ġavantag": 3966,
      "Ġmaintien": 3967,
      "ĠrÃ©pu": 3968,
      "ĠgÃ©nÃ©ralement": 3969,
      "Ġmett": 3970,
      "ĠvÃ©ritÃ©s": 3971,
      "Ġvoulut": 3972,
      "Ġrapporter": 3973,
      "Ġconforme": 3974,
      "Ġfrais": 3975,
      "Ġpaysan": 3976,
      "Ġincomm": 3977,
      "Ġdoigts": 3978,
      "Ġciel": 3979,
      "Ġpolice": 3980,
      "exposer": 3981,
      "Ġpierre": 3982,
      "Ġclasse": 3983,
      "piditÃ©": 3984,
      "Ġcapit": 3985,
      "uries": 3986,
      "entendement": 3987,
      "ĠdÃ©ta": 3988,
      "Ġnotions": 3989,
      "Ġfavorable": 3990,
      "Ġfaudra": 3991,
      "Ġressources": 3992,
      "ĠdÃ©gÃ©n": 3993,
      "casions": 3994,
      "ĠgoÃ»ter": 3995,
      "faits": 3996,
      "Ã©tablissement": 3997,
      "Ġparvenir": 3998,
      "Ġcultiver": 3999,
      "ĠtÃ©moin": 4000,
      "Ġaugmenter": 4001,
      "Ġcontraint": 4002,
      "Ġattendu": 4003,
      "ĠcaractÃ¨res": 4004,
      "ĠdÃ©fauts": 4005,
      "ĠrÃ©duit": 4006,
      "Ġlecture": 4007,
      "Ġprodiges": 4008,
      "Ġsouvenir": 4009,
      "Ġguide": 4010,
      "Ġroug": 4011,
      "envir": 4012,
      "Ġennemi": 4013,
      "Ġchevaux": 4014,
      "archie": 4015,
      "ĠtroisiÃ¨me": 4016,
      "ĠAng": 4017,
      "Ġnourriture": 4018,
      "ĠSupp": 4019,
      "Ġsommeil": 4020,
      "Ġorganes": 4021,
      "Ġsignifie": 4022,
      "Ġenseigner": 4023,
      "amitiÃ©": 4024,
      "Åĵu": 4025,
      "ĠConf": 4026,
      "ĠSauvages": 4027,
      "Ġsoldats": 4028,
      "Ġabsolue": 4029,
      "Ġsubjugu": 4030,
      "Ġincessamment": 4031,
      "Il": 4032,
      "deur": 4033,
      "juste": 4034,
      "sants": 4035,
      "Ġ.": 4036,
      "ĠĊ": 4037,
      "Ġpus": 4038,
      "Ġst": 4039,
      "aig": 4040,
      "Ġfirent": 4041,
      "Ġfolie": 4042,
      "Ġvari": 4043,
      "ĠvÃ´tres": 4044,
      "riers": 4045,
      "usur": 4046,
      "inaires": 4047,
      "Ġrus": 4048,
      "Ġunif": 4049,
      "Ġauroient": 4050,
      "aurai": 4051,
      "Ġparc": 4052,
      "Ġprouve": 4053,
      "Ġproie": 4054,
      "ĠÃ©qui": 4055,
      "ralitÃ©": 4056,
      "atti": 4057,
      "atures": 4058,
      "Ġcomices": 4059,
      "ĠdÃ©n": 4060,
      "onnÃ©e": 4061,
      "ĠCeci": 4062,
      "Ġore": 4063,
      "cide": 4064,
      "cieuse": 4065,
      "ĠSes": 4066,
      "Ġdiv": 4067,
      "Ġdiver": 4068,
      "Ġserai": 4069,
      "Ġriv": 4070,
      "ĠPre": 4071,
      "ĠrÃ©el": 4072,
      "ĠDÃ¨s": 4073,
      "ĠElles": 4074,
      "Ġvite": 4075,
      "ĠprotÃ©": 4076,
      "Ġproch": 4077,
      "Ġmalade": 4078,
      "exÃ©cu": 4079,
      "Ġcoque": 4080,
      "ĠTelle": 4081,
      "Ġconnus": 4082,
      "verse": 4083,
      "istori": 4084,
      "Ġpermet": 4085,
      "Ġdouter": 4086,
      "Ġdouble": 4087,
      "Ġsensation": 4088,
      "Ġespeces": 4089,
      "Ġrendez": 4090,
      "enfants": 4091,
      "Ġferment": 4092,
      "ĠÃ©gale": 4093,
      "ĠÃ©galitÃ©": 4094,
      "ĠguÃ©ri": 4095
    },
    "merges": [
      [
        "Ġ",
        "d"
      ],
      [
        "e",
        "s"
      ],
      [
        "Ġ",
        "l"
      ],
      [
        "e",
        "n"
      ],
      [
        "Ġ",
        "p"
      ],
      [
        "â",
        "Ģ"
      ],
      [
        "âĢ",
        "Ļ"
      ],
      [
        "Ã",
        "©"
      ],
      [
        "o",
        "n"
      ],
      [
        "Ġ",
        "s"
      ],
      [
        "q",
        "u"
      ],
      [
        "o",
        "u"
      ],
      [
        "Ġ",
        "c"
      ],
      [
        "r",
        "e"
      ],
      [
        "Ġ",
        "qu"
      ],
      [
        "e",
        "r"
      ],
      [
        "a",
        "n"
      ],
      [
        "o",
        "i"
      ],
      [
        "Ġd",
        "e"
      ],
      [
        "Ġ",
        "a"
      ],
      [
        "Ġ",
        "m"
      ],
      [
        "Ġ",
        "n"
      ],
      [
        "a",
        "i"
      ],
      [
        "en",
        "t"
      ],
      [
        "e",
        "u"
      ],
      [
        "i",
        "l"
      ],
      [
        "Ġ",
        "t"
      ],
      [
        "Ġ",
        "f"
      ],
      [
        "Ġ",
        "v"
      ],
      [
        "Ġ",
        "&"
      ],
      [
        "Ġl",
        "a"
      ],
      [
        "l",
        "e"
      ],
      [
        "Ġp",
        "a"
      ],
      [
        "Ġ",
        "Ã"
      ],
      [
        "t",
        "i"
      ],
      [
        "u",
        "n"
      ],
      [
        "Ġqu",
        "e"
      ],
      [
        "Ġl",
        "es"
      ],
      [
        "Ġl",
        "e"
      ],
      [
        "r",
        "i"
      ],
      [
        "ĠÃ",
        "ł"
      ],
      [
        "ou",
        "r"
      ],
      [
        "u",
        "s"
      ],
      [
        "i",
        "n"
      ],
      [
        "o",
        "m"
      ],
      [
        "o",
        "r"
      ],
      [
        "e",
        "l"
      ],
      [
        "es",
        "t"
      ],
      [
        "an",
        "t"
      ],
      [
        "Ġ",
        "j"
      ],
      [
        "t",
        "e"
      ],
      [
        "m",
        "e"
      ],
      [
        "ai",
        "s"
      ],
      [
        "u",
        "i"
      ],
      [
        "an",
        "s"
      ],
      [
        "eu",
        "r"
      ],
      [
        "ou",
        "s"
      ],
      [
        "Ġ",
        "en"
      ],
      [
        "Ġ",
        "r"
      ],
      [
        "on",
        "t"
      ],
      [
        "Ġd",
        "es"
      ],
      [
        "Ġn",
        "e"
      ],
      [
        "oi",
        "t"
      ],
      [
        "Ġ",
        "un"
      ],
      [
        "Ġa",
        "u"
      ],
      [
        "m",
        "ent"
      ],
      [
        "Ġ",
        "b"
      ],
      [
        "a",
        "u"
      ],
      [
        "c",
        "e"
      ],
      [
        "Ġpa",
        "r"
      ],
      [
        "Ġp",
        "l"
      ],
      [
        "Ġ",
        "il"
      ],
      [
        "Ġqu",
        "i"
      ],
      [
        "i",
        "s"
      ],
      [
        "t",
        "re"
      ],
      [
        "on",
        "s"
      ],
      [
        "t",
        "Ã©"
      ],
      [
        "Ġc",
        "e"
      ],
      [
        "Ã",
        "ª"
      ],
      [
        "Ã",
        "¨"
      ],
      [
        "Ġp",
        "r"
      ],
      [
        "Ġp",
        "our"
      ],
      [
        "a",
        "r"
      ],
      [
        "Ġpa",
        "s"
      ],
      [
        "Ġ",
        "g"
      ],
      [
        "s",
        "e"
      ],
      [
        "Ġ",
        "Ã©"
      ],
      [
        "r",
        "a"
      ],
      [
        "Ġpl",
        "us"
      ],
      [
        "Ġt",
        "ou"
      ],
      [
        "s",
        "i"
      ],
      [
        "oi",
        "n"
      ],
      [
        "Ġ",
        "est"
      ],
      [
        "Ġd",
        "ans"
      ],
      [
        "l",
        "i"
      ],
      [
        "Ġs",
        "e"
      ],
      [
        "a",
        "t"
      ],
      [
        "n",
        "e"
      ],
      [
        "r",
        "es"
      ],
      [
        "en",
        "d"
      ],
      [
        "ou",
        "v"
      ],
      [
        "el",
        "le"
      ],
      [
        "Ġc",
        "h"
      ],
      [
        "Ġs",
        "u"
      ],
      [
        "Ġ",
        "h"
      ],
      [
        "Ġ",
        "e"
      ],
      [
        "c",
        "h"
      ],
      [
        "l",
        "es"
      ],
      [
        "Ġc",
        "om"
      ],
      [
        "i",
        "t"
      ],
      [
        "a",
        "g"
      ],
      [
        "Ġa",
        "v"
      ],
      [
        "Ġd",
        "Ã©"
      ],
      [
        "i",
        "en"
      ],
      [
        "m",
        "p"
      ],
      [
        "Ġl",
        "eur"
      ],
      [
        "ti",
        "on"
      ],
      [
        "Ġd",
        "u"
      ],
      [
        "o",
        "s"
      ],
      [
        "oi",
        "s"
      ],
      [
        "qu",
        "e"
      ],
      [
        "Ġ",
        "re"
      ],
      [
        "Ġf",
        "ai"
      ],
      [
        "p",
        "p"
      ],
      [
        "Ġj",
        "e"
      ],
      [
        "Ġ",
        "in"
      ],
      [
        "Ġp",
        "eu"
      ],
      [
        "a",
        "b"
      ],
      [
        "an",
        "d"
      ],
      [
        "eu",
        "x"
      ],
      [
        "Ġl",
        "ui"
      ],
      [
        "oi",
        "r"
      ],
      [
        "i",
        "r"
      ],
      [
        "on",
        "n"
      ],
      [
        "f",
        "f"
      ],
      [
        "Ġs",
        "a"
      ],
      [
        "Ġ",
        "L"
      ],
      [
        "Ġtou",
        "t"
      ],
      [
        "m",
        "es"
      ],
      [
        "Ġ",
        "C"
      ],
      [
        "Ġt",
        "r"
      ],
      [
        "en",
        "s"
      ],
      [
        "Ġ",
        "o"
      ],
      [
        "Ġs",
        "on"
      ],
      [
        "a",
        "l"
      ],
      [
        "Ġs",
        "i"
      ],
      [
        "e",
        "c"
      ],
      [
        "Ã©",
        "s"
      ],
      [
        "a",
        "m"
      ],
      [
        "Ġn",
        "ous"
      ],
      [
        "i",
        "e"
      ],
      [
        "o",
        "p"
      ],
      [
        "ai",
        "n"
      ],
      [
        "or",
        "t"
      ],
      [
        "Ġun",
        "e"
      ],
      [
        "c",
        "i"
      ],
      [
        "Ãª",
        "me"
      ],
      [
        "Ġv",
        "ous"
      ],
      [
        "u",
        "re"
      ],
      [
        "e",
        "t"
      ],
      [
        "Ġm",
        "ais"
      ],
      [
        "Ġsu",
        "r"
      ],
      [
        "au",
        "t"
      ],
      [
        "Ġ",
        "S"
      ],
      [
        "Ġd",
        "i"
      ],
      [
        "d",
        "e"
      ],
      [
        "Ġc",
        "on"
      ],
      [
        "ĠÃ©",
        "t"
      ],
      [
        "g",
        "e"
      ],
      [
        "Ġ",
        "ou"
      ],
      [
        "Ġb",
        "ien"
      ],
      [
        "Ġ",
        "i"
      ],
      [
        "Ġs",
        "ans"
      ],
      [
        "Ã",
        "ł"
      ],
      [
        "Ġce",
        "t"
      ],
      [
        "o",
        "l"
      ],
      [
        "oin",
        "t"
      ],
      [
        "Ġs",
        "ont"
      ],
      [
        "er",
        "s"
      ],
      [
        "Ã¨",
        "re"
      ],
      [
        "c",
        "es"
      ],
      [
        "Ġh",
        "om"
      ],
      [
        "Ġp",
        "oint"
      ],
      [
        "Ã©",
        "t"
      ],
      [
        "Ġs",
        "er"
      ],
      [
        "Ã",
        "®"
      ],
      [
        "Ġ",
        "on"
      ],
      [
        "o",
        "y"
      ],
      [
        "m",
        "i"
      ],
      [
        "Ġm",
        "e"
      ],
      [
        "Ġ",
        "ri"
      ],
      [
        "our",
        "s"
      ],
      [
        "Ġl",
        "i"
      ],
      [
        "Ġ",
        "P"
      ],
      [
        "Ġe",
        "x"
      ],
      [
        "Ġs",
        "es"
      ],
      [
        "a",
        "c"
      ],
      [
        "Ġc",
        "el"
      ],
      [
        "a",
        "v"
      ],
      [
        "r",
        "oit"
      ],
      [
        "t",
        "er"
      ],
      [
        "Ġr",
        "Ã©"
      ],
      [
        "ouv",
        "er"
      ],
      [
        "ui",
        "s"
      ],
      [
        "Ġm",
        "a"
      ],
      [
        "a",
        "tion"
      ],
      [
        "Ġc",
        "es"
      ],
      [
        "Ġfai",
        "t"
      ],
      [
        "Ã",
        "»"
      ],
      [
        "Ġf",
        "or"
      ],
      [
        "d",
        "i"
      ],
      [
        "u",
        "l"
      ],
      [
        "Ġ",
        "I"
      ],
      [
        "Ã©",
        "e"
      ],
      [
        "ag",
        "e"
      ],
      [
        "Ġpeu",
        "t"
      ],
      [
        "ti",
        "ons"
      ],
      [
        "Ġm",
        "Ãªme"
      ],
      [
        "Ġav",
        "ec"
      ],
      [
        "an",
        "ce"
      ],
      [
        "oin",
        "s"
      ],
      [
        "v",
        "e"
      ],
      [
        "il",
        "s"
      ],
      [
        "Ġque",
        "l"
      ],
      [
        "Ġ",
        "J"
      ],
      [
        "Ġc",
        "ons"
      ],
      [
        "Ġ",
        "D"
      ],
      [
        "a",
        "s"
      ],
      [
        "Ġd",
        "is"
      ],
      [
        "Ġau",
        "x"
      ],
      [
        "t",
        "u"
      ],
      [
        "ĠÃ",
        "ª"
      ],
      [
        "eur",
        "s"
      ],
      [
        "ĠI",
        "l"
      ],
      [
        "Ġ",
        "E"
      ],
      [
        "Ġ",
        "y"
      ],
      [
        "Ġfai",
        "re"
      ],
      [
        "at",
        "ure"
      ],
      [
        "Ġg",
        "r"
      ],
      [
        "Ġt",
        "ous"
      ],
      [
        "b",
        "le"
      ],
      [
        "end",
        "re"
      ],
      [
        "Ġ",
        "elle"
      ],
      [
        "Ġn",
        "ature"
      ],
      [
        "Ġv",
        "i"
      ],
      [
        "r",
        "ai"
      ],
      [
        "es",
        "p"
      ],
      [
        "oi",
        "ent"
      ],
      [
        "Ġcet",
        "te"
      ],
      [
        "Ã©",
        "ri"
      ],
      [
        "Ġen",
        "f"
      ],
      [
        "un",
        "e"
      ],
      [
        "t",
        "s"
      ],
      [
        "Ã¨",
        "s"
      ],
      [
        "Ġcom",
        "me"
      ],
      [
        "e",
        "z"
      ],
      [
        "u",
        "x"
      ],
      [
        "Ġau",
        "t"
      ],
      [
        "u",
        "t"
      ],
      [
        "ĠÃª",
        "tre"
      ],
      [
        "Ġm",
        "on"
      ],
      [
        "r",
        "Ã©"
      ],
      [
        "Ġ",
        "M"
      ],
      [
        "en",
        "ce"
      ],
      [
        "Ã",
        "´"
      ],
      [
        "ab",
        "le"
      ],
      [
        "Ġc",
        "ont"
      ],
      [
        "Ġ",
        "A"
      ],
      [
        "on",
        "ne"
      ],
      [
        "j",
        "ours"
      ],
      [
        "Ġs",
        "eu"
      ],
      [
        "il",
        "e"
      ],
      [
        "Ġpr",
        "Ã©"
      ],
      [
        "Ġtou",
        "jours"
      ],
      [
        "re",
        "r"
      ],
      [
        "a",
        "pp"
      ],
      [
        "Ã",
        "¢"
      ],
      [
        "Ã©",
        "n"
      ],
      [
        "e",
        "m"
      ],
      [
        "el",
        "les"
      ],
      [
        "Ġde",
        "v"
      ],
      [
        "u",
        "e"
      ],
      [
        "Ġleur",
        "s"
      ],
      [
        "Ġ",
        "Q"
      ],
      [
        "Ġri",
        "en"
      ],
      [
        "Ġf",
        "aut"
      ],
      [
        "Ġn",
        "i"
      ],
      [
        "Ġgr",
        "and"
      ],
      [
        "e",
        "mp"
      ],
      [
        "Ġa",
        "pp"
      ],
      [
        "Ġ",
        "ent"
      ],
      [
        "Ġm",
        "oins"
      ],
      [
        "p",
        "r"
      ],
      [
        "an",
        "g"
      ],
      [
        "s",
        "er"
      ],
      [
        "Ġj",
        "am"
      ],
      [
        "Ġil",
        "s"
      ],
      [
        "t",
        "es"
      ],
      [
        "Ġp",
        "re"
      ],
      [
        "c",
        "u"
      ],
      [
        "Ġe",
        "t"
      ],
      [
        "Ġjam",
        "ais"
      ],
      [
        "Ġpr",
        "o"
      ],
      [
        "ch",
        "e"
      ],
      [
        "Ġp",
        "ri"
      ],
      [
        "Ġm",
        "o"
      ],
      [
        "Ġcom",
        "m"
      ],
      [
        "Ãª",
        "tre"
      ],
      [
        "Ã",
        "¹"
      ],
      [
        "Ġm",
        "al"
      ],
      [
        "Ġhom",
        "mes"
      ],
      [
        "s",
        "t"
      ],
      [
        "Ġd",
        "ont"
      ],
      [
        "Ã»",
        "t"
      ],
      [
        "ai",
        "t"
      ],
      [
        "Ġo",
        "b"
      ],
      [
        "or",
        "d"
      ],
      [
        "om",
        "me"
      ],
      [
        "Ġp",
        "e"
      ],
      [
        "g",
        "n"
      ],
      [
        "m",
        "b"
      ],
      [
        "Ġp",
        "uis"
      ],
      [
        "Ã©",
        "r"
      ],
      [
        "j",
        "et"
      ],
      [
        "o",
        "re"
      ],
      [
        "Ġpre",
        "mi"
      ],
      [
        "ĠJ",
        "e"
      ],
      [
        "ai",
        "re"
      ],
      [
        "Ġr",
        "ais"
      ],
      [
        "Ġqu",
        "and"
      ],
      [
        "au",
        "x"
      ],
      [
        "Ġs",
        "ent"
      ],
      [
        "u",
        "r"
      ],
      [
        "l",
        "er"
      ],
      [
        "Ġa",
        "c"
      ],
      [
        "Ã©",
        "ra"
      ],
      [
        "v",
        "ent"
      ],
      [
        "Ã",
        "§"
      ],
      [
        "e",
        "x"
      ],
      [
        "on",
        "c"
      ],
      [
        "Ġo",
        "Ã¹"
      ],
      [
        "b",
        "li"
      ],
      [
        "Ġc",
        "r"
      ],
      [
        "Ã´",
        "t"
      ],
      [
        "Ġa",
        "r"
      ],
      [
        "Ġ",
        "O"
      ],
      [
        "Ġd",
        "onn"
      ],
      [
        "il",
        "le"
      ],
      [
        "Ġpar",
        "ti"
      ],
      [
        "ar",
        "d"
      ],
      [
        "Ġi",
        "mp"
      ],
      [
        "o",
        "tre"
      ],
      [
        "s",
        "ent"
      ],
      [
        "Ġc",
        "o"
      ],
      [
        "Ġpr",
        "op"
      ],
      [
        "ch",
        "er"
      ],
      [
        "Ġhom",
        "me"
      ],
      [
        "i",
        "m"
      ],
      [
        "Ġa",
        "s"
      ],
      [
        "ti",
        "n"
      ],
      [
        "Ġd",
        "oit"
      ],
      [
        "a",
        "Ã®"
      ],
      [
        "Ġ",
        "T"
      ],
      [
        "Ġc",
        "ar"
      ],
      [
        "h",
        "omme"
      ],
      [
        "on",
        "d"
      ],
      [
        "ant",
        "s"
      ],
      [
        "Ã©",
        "g"
      ],
      [
        "i",
        "ent"
      ],
      [
        "Ġc",
        "onn"
      ],
      [
        "Ġcel",
        "ui"
      ],
      [
        "ĠQ",
        "u"
      ],
      [
        "c",
        "ou"
      ],
      [
        "u",
        "m"
      ],
      [
        "us",
        "si"
      ],
      [
        "c",
        "ore"
      ],
      [
        "v",
        "er"
      ],
      [
        "Ġen",
        "core"
      ],
      [
        "i",
        "tÃ©"
      ],
      [
        "ou",
        "t"
      ],
      [
        "e",
        "au"
      ],
      [
        "Ġpeu",
        "p"
      ],
      [
        "or",
        "te"
      ],
      [
        "is",
        "t"
      ],
      [
        "Ã©",
        "es"
      ],
      [
        "Ġp",
        "er"
      ],
      [
        "Ġ",
        "N"
      ],
      [
        "ri",
        "s"
      ],
      [
        "Ġs",
        "oit"
      ],
      [
        "Ġv",
        "ie"
      ],
      [
        "en",
        "ir"
      ],
      [
        "Ġv",
        "ou"
      ],
      [
        "eu",
        "re"
      ],
      [
        "ri",
        "t"
      ],
      [
        "in",
        "e"
      ],
      [
        "Ġcom",
        "p"
      ],
      [
        "i",
        "d"
      ],
      [
        "Ã©",
        "p"
      ],
      [
        "Ġ",
        "ont"
      ],
      [
        "Ġc",
        "or"
      ],
      [
        "Ġaut",
        "res"
      ],
      [
        "Ġau",
        "tre"
      ],
      [
        "Ġc",
        "a"
      ],
      [
        "Ġm",
        "an"
      ],
      [
        "Ġm",
        "es"
      ],
      [
        "Ġquel",
        "que"
      ],
      [
        "Ġb",
        "on"
      ],
      [
        "in",
        "si"
      ],
      [
        "Ġs",
        "o"
      ],
      [
        "i",
        "on"
      ],
      [
        "m",
        "Ãªme"
      ],
      [
        "Ġ",
        "V"
      ],
      [
        "Ġde",
        "ux"
      ],
      [
        "t",
        "at"
      ],
      [
        "ne",
        "ment"
      ],
      [
        "Ġtout",
        "es"
      ],
      [
        "Ġcel",
        "a"
      ],
      [
        "Ġj",
        "us"
      ],
      [
        "Ġj",
        "u"
      ],
      [
        "Ġdi",
        "ff"
      ],
      [
        "v",
        "re"
      ],
      [
        "or",
        "s"
      ],
      [
        "Ġli",
        "b"
      ],
      [
        "au",
        "tre"
      ],
      [
        "Ġm",
        "oi"
      ],
      [
        "o",
        "b"
      ],
      [
        "Ġav",
        "oir"
      ],
      [
        "p",
        "s"
      ],
      [
        "Ġf",
        "em"
      ],
      [
        "qu",
        "es"
      ],
      [
        "Ġseu",
        "l"
      ],
      [
        "Ġn",
        "os"
      ],
      [
        "om",
        "p"
      ],
      [
        "Ġd",
        "onc"
      ],
      [
        "ai",
        "l"
      ],
      [
        "Ġa",
        "ussi"
      ],
      [
        "ti",
        "tu"
      ],
      [
        "t",
        "t"
      ],
      [
        "ĠL",
        "e"
      ],
      [
        "ĠM",
        "ais"
      ],
      [
        "Ġv",
        "ol"
      ],
      [
        "Ġp",
        "u"
      ],
      [
        "oi",
        "x"
      ],
      [
        "Ġd",
        "roit"
      ],
      [
        "le",
        "ment"
      ],
      [
        "ui",
        "t"
      ],
      [
        "op",
        "h"
      ],
      [
        "Ġ",
        "G"
      ],
      [
        "Ġs",
        "ou"
      ],
      [
        "Ġc",
        "eux"
      ],
      [
        "ĠdÃ©",
        "p"
      ],
      [
        "Ġr",
        "est"
      ],
      [
        "Ġb",
        "es"
      ],
      [
        "Ġtou",
        "te"
      ],
      [
        "Ġp",
        "ouv"
      ],
      [
        "Ġ",
        "R"
      ],
      [
        "v",
        "oir"
      ],
      [
        "Ġd",
        "ou"
      ],
      [
        "ment",
        "s"
      ],
      [
        "Ġdi",
        "re"
      ],
      [
        "c",
        "l"
      ],
      [
        "o",
        "se"
      ],
      [
        "Ġd",
        "it"
      ],
      [
        "Ġj",
        "eu"
      ],
      [
        "ouv",
        "e"
      ],
      [
        "er",
        "re"
      ],
      [
        "ĠL",
        "a"
      ],
      [
        "Ġrais",
        "on"
      ],
      [
        "Ġb",
        "eau"
      ],
      [
        "Ġs",
        "ens"
      ],
      [
        "tÃ©",
        "s"
      ],
      [
        "l",
        "Ãł"
      ],
      [
        "Ã©",
        "d"
      ],
      [
        "ĠL",
        "es"
      ],
      [
        "Ãª",
        "mes"
      ],
      [
        "Ġfor",
        "ce"
      ],
      [
        "a",
        "tions"
      ],
      [
        "g",
        "er"
      ],
      [
        "i",
        "eux"
      ],
      [
        "n",
        "es"
      ],
      [
        "Ã¨",
        "res"
      ],
      [
        "o",
        "c"
      ],
      [
        "se",
        "z"
      ],
      [
        "Ġn",
        "on"
      ],
      [
        "Ġv",
        "er"
      ],
      [
        "il",
        "l"
      ],
      [
        "Ġav",
        "ant"
      ],
      [
        "Ġm",
        "ain"
      ],
      [
        "us",
        "e"
      ],
      [
        "Ġ",
        "esp"
      ],
      [
        "i",
        "er"
      ],
      [
        "ag",
        "es"
      ],
      [
        "Ġc",
        "elle"
      ],
      [
        "Ġr",
        "app"
      ],
      [
        "es",
        "s"
      ],
      [
        "Ġco",
        "eur"
      ],
      [
        "ab",
        "les"
      ],
      [
        "Ġpeup",
        "le"
      ],
      [
        "Ġa",
        "insi"
      ],
      [
        "Ġa",
        "l"
      ],
      [
        "Ġf",
        "ort"
      ],
      [
        "Ġg",
        "Ã©n"
      ],
      [
        "Ġapp",
        "r"
      ],
      [
        "om",
        "b"
      ],
      [
        "ĠS",
        "i"
      ],
      [
        "Ġr",
        "end"
      ],
      [
        "d",
        "re"
      ],
      [
        "en",
        "f"
      ],
      [
        "Ġt",
        "ra"
      ],
      [
        "Ġl",
        "ais"
      ],
      [
        "ĠE",
        "n"
      ],
      [
        "Ġn",
        "Ã©"
      ],
      [
        "Ġ",
        "an"
      ],
      [
        "g",
        "u"
      ],
      [
        "Ġpa",
        "y"
      ],
      [
        "ouver",
        "nement"
      ],
      [
        "Ġnature",
        "l"
      ],
      [
        "m",
        "er"
      ],
      [
        "a",
        "li"
      ],
      [
        "ri",
        "r"
      ],
      [
        "Ġent",
        "re"
      ],
      [
        "Ġvol",
        "ont"
      ],
      [
        "Ġa",
        "tt"
      ],
      [
        "si",
        "ble"
      ],
      [
        "Ã®",
        "tre"
      ],
      [
        "ĠD",
        "i"
      ],
      [
        "Ġp",
        "ers"
      ],
      [
        "Ġa",
        "b"
      ],
      [
        "mb",
        "l"
      ],
      [
        "ĠO",
        "n"
      ],
      [
        "Ġm",
        "ieux"
      ],
      [
        "a",
        "ti"
      ],
      [
        "Ġdonn",
        "er"
      ],
      [
        "g",
        "ne"
      ],
      [
        "u",
        "c"
      ],
      [
        "Ġt",
        "ant"
      ],
      [
        "Ġt",
        "emp"
      ],
      [
        "Ġbes",
        "oin"
      ],
      [
        "eu",
        "t"
      ],
      [
        "oi",
        "re"
      ],
      [
        "ĠrÃ©",
        "p"
      ],
      [
        "a",
        "d"
      ],
      [
        "m",
        "ile"
      ],
      [
        "Ġso",
        "ci"
      ],
      [
        "pr",
        "Ã¨s"
      ],
      [
        "o",
        "ri"
      ],
      [
        "ai",
        "ne"
      ],
      [
        "n",
        "ent"
      ],
      [
        "r",
        "Ãª"
      ],
      [
        "Ġf",
        "er"
      ],
      [
        "ĠC",
        "e"
      ],
      [
        "si",
        "on"
      ],
      [
        "Ġcon",
        "v"
      ],
      [
        "Ġtr",
        "op"
      ],
      [
        "Ġ",
        "eux"
      ],
      [
        "Ġin",
        "s"
      ],
      [
        "ĠnÃ©",
        "ces"
      ],
      [
        "Ġcor",
        "ps"
      ],
      [
        "Ġv",
        "otre"
      ],
      [
        "Ġpar",
        "ce"
      ],
      [
        "Ġh",
        "um"
      ],
      [
        "os",
        "es"
      ],
      [
        "Ġparti",
        "cu"
      ],
      [
        "b",
        "les"
      ],
      [
        "Ġparticu",
        "li"
      ],
      [
        "Ġch",
        "oses"
      ],
      [
        "ien",
        "s"
      ],
      [
        "aÃ®",
        "t"
      ],
      [
        "oph",
        "ie"
      ],
      [
        "ant",
        "e"
      ],
      [
        "Ġ",
        "elles"
      ],
      [
        "Ġv",
        "oir"
      ],
      [
        "Ġe",
        "ff"
      ],
      [
        "Ġpe",
        "ti"
      ],
      [
        "i",
        "c"
      ],
      [
        "Ġch",
        "a"
      ],
      [
        "Ġpremi",
        "er"
      ],
      [
        "ĠÃ©",
        "l"
      ],
      [
        "oy",
        "ens"
      ],
      [
        "Ġv",
        "oy"
      ],
      [
        "Ġpr",
        "es"
      ],
      [
        "ĠgÃ©n",
        "Ã©ra"
      ],
      [
        "Ġre",
        "g"
      ],
      [
        "Ġm",
        "et"
      ],
      [
        "Ġc",
        "ou"
      ],
      [
        "Ġv",
        "Ã©ri"
      ],
      [
        "ĠÃ©t",
        "oit"
      ],
      [
        "Ġm",
        "Ã©"
      ],
      [
        "v",
        "ers"
      ],
      [
        "Ġvou",
        "l"
      ],
      [
        "Ġsent",
        "i"
      ],
      [
        "an",
        "ge"
      ],
      [
        "si",
        "ons"
      ],
      [
        "Ġe",
        "mp"
      ],
      [
        "Ġser",
        "a"
      ],
      [
        "Ġli",
        "eu"
      ],
      [
        "st",
        "r"
      ],
      [
        "s",
        "ance"
      ],
      [
        "Ġf",
        "ois"
      ],
      [
        "Ġmon",
        "de"
      ],
      [
        "c",
        "er"
      ],
      [
        "Ġs",
        "au"
      ],
      [
        "cou",
        "p"
      ],
      [
        "Ġd",
        "onne"
      ],
      [
        "Ġser",
        "oit"
      ],
      [
        "Ġpu",
        "bli"
      ],
      [
        "Ġa",
        "ff"
      ],
      [
        "Ġlib",
        "er"
      ],
      [
        "Ġpar",
        "t"
      ],
      [
        "ĠÃ©",
        "g"
      ],
      [
        "Ġsu",
        "pp"
      ],
      [
        "ent",
        "e"
      ],
      [
        "Ġrapp",
        "ort"
      ],
      [
        "qu",
        "el"
      ],
      [
        "Ġcon",
        "f"
      ],
      [
        "on",
        "g"
      ],
      [
        "v",
        "ous"
      ],
      [
        "Ġqu",
        "oi"
      ],
      [
        "in",
        "s"
      ],
      [
        "n",
        "er"
      ],
      [
        "Ġm",
        "ont"
      ],
      [
        "Ġvolont",
        "Ã©"
      ],
      [
        "Ġv",
        "oit"
      ],
      [
        "ĠG",
        "ouvernement"
      ],
      [
        "o",
        "li"
      ],
      [
        "Ġg",
        "u"
      ],
      [
        "Ġch",
        "er"
      ],
      [
        "a",
        "le"
      ],
      [
        "Ã©",
        "tÃ©"
      ],
      [
        "Ġm",
        "is"
      ],
      [
        "ai",
        "ent"
      ],
      [
        "Ġob",
        "jet"
      ],
      [
        "Ġdiff",
        "Ã©r"
      ],
      [
        "ai",
        "res"
      ],
      [
        "Ġi",
        "d"
      ],
      [
        "Ġbeau",
        "coup"
      ],
      [
        "Ġn",
        "otre"
      ],
      [
        "te",
        "ment"
      ],
      [
        "ĠÃ©t",
        "at"
      ],
      [
        "Ġi",
        "m"
      ],
      [
        "Ġju",
        "ge"
      ],
      [
        "Ġp",
        "os"
      ],
      [
        "Ġau",
        "c"
      ],
      [
        "Ġrest",
        "e"
      ],
      [
        "qu",
        "er"
      ],
      [
        "Ġde",
        "m"
      ],
      [
        "Ġv",
        "rai"
      ],
      [
        "E",
        "tat"
      ],
      [
        "Ġr",
        "Ã©s"
      ],
      [
        "ĠdÃ©",
        "f"
      ],
      [
        "ci",
        "p"
      ],
      [
        "re",
        "z"
      ],
      [
        "Ġg",
        "ens"
      ],
      [
        "Ġm",
        "ar"
      ],
      [
        "ĠÃ",
        "¢"
      ],
      [
        "Ġas",
        "sez"
      ],
      [
        "l",
        "Ã©"
      ],
      [
        "Ġg",
        "o"
      ],
      [
        "Ġf",
        "r"
      ],
      [
        "ĠS",
        "ophie"
      ],
      [
        "Ġpl",
        "ais"
      ],
      [
        "Ġsa",
        "voir"
      ],
      [
        "Ġpay",
        "s"
      ],
      [
        "Ġc",
        "it"
      ],
      [
        "t",
        "res"
      ],
      [
        "Ġr",
        "endre"
      ],
      [
        "at",
        "t"
      ],
      [
        "ra",
        "s"
      ],
      [
        "Ġsu",
        "b"
      ],
      [
        "Ġf",
        "ont"
      ],
      [
        "Ġv",
        "eut"
      ],
      [
        "ĠÃ©",
        "tÃ©"
      ],
      [
        "Ġcont",
        "re"
      ],
      [
        "Ġs",
        "ui"
      ],
      [
        "Ãª",
        "te"
      ],
      [
        "ĠP",
        "our"
      ],
      [
        "Ġliber",
        "tÃ©"
      ],
      [
        "tÃ©",
        "rÃª"
      ],
      [
        "Ġtemp",
        "s"
      ],
      [
        "Ġcom",
        "ment"
      ],
      [
        "Ġenf",
        "ants"
      ],
      [
        "Ġpri",
        "n"
      ],
      [
        "t",
        "r"
      ],
      [
        "t",
        "ri"
      ],
      [
        "Ġse",
        "c"
      ],
      [
        "Ġa",
        "d"
      ],
      [
        "li",
        "g"
      ],
      [
        "Ġser",
        "v"
      ],
      [
        "eure",
        "ux"
      ],
      [
        "s",
        "es"
      ],
      [
        "oi",
        "lÃł"
      ],
      [
        "Ġt",
        "our"
      ],
      [
        "Ġy",
        "eux"
      ],
      [
        "Ġtra",
        "v"
      ],
      [
        "s",
        "ant"
      ],
      [
        "ti",
        "f"
      ],
      [
        "i",
        "ons"
      ],
      [
        "Ġa",
        "m"
      ],
      [
        "Ġt",
        "i"
      ],
      [
        "Ġp",
        "h"
      ],
      [
        "Ġch",
        "ose"
      ],
      [
        "ĠnÃ©ces",
        "s"
      ],
      [
        "Ġcha",
        "que"
      ],
      [
        "Ġl",
        "ong"
      ],
      [
        "ouv",
        "ent"
      ],
      [
        "Ġf",
        "ais"
      ],
      [
        "Ġsi",
        "mp"
      ],
      [
        "Ġl",
        "oi"
      ],
      [
        "os",
        "er"
      ],
      [
        "Ġtr",
        "Ã¨s"
      ],
      [
        "oy",
        "en"
      ],
      [
        "m",
        "in"
      ],
      [
        "Ġs",
        "ous"
      ],
      [
        "as",
        "se"
      ],
      [
        "ui",
        "re"
      ],
      [
        "aut",
        "res"
      ],
      [
        "Ġdev",
        "oir"
      ],
      [
        "Ġjus",
        "qu"
      ],
      [
        "Ġcom",
        "b"
      ],
      [
        "Ġprop",
        "re"
      ],
      [
        "i",
        "Ã¨re"
      ],
      [
        "a",
        "ce"
      ],
      [
        "Ġs",
        "ait"
      ],
      [
        "ab",
        "it"
      ],
      [
        "r",
        "ent"
      ],
      [
        "Ġpe",
        "ine"
      ],
      [
        "h",
        "eur"
      ],
      [
        "Ġc",
        "our"
      ],
      [
        "Ġj",
        "ou"
      ],
      [
        "Ġex",
        "p"
      ],
      [
        "ac",
        "un"
      ],
      [
        "Ġc",
        "er"
      ],
      [
        "Ġma",
        "Ã®tre"
      ],
      [
        "Ġpr",
        "Ã©s"
      ],
      [
        "p",
        "er"
      ],
      [
        "Ġ",
        "es"
      ],
      [
        "Ġf",
        "ac"
      ],
      [
        "esp",
        "rit"
      ],
      [
        "ang",
        "er"
      ],
      [
        "enf",
        "ant"
      ],
      [
        "aÃ®",
        "tre"
      ],
      [
        "Ġv",
        "ois"
      ],
      [
        "ord",
        "re"
      ],
      [
        "Ġfem",
        "me"
      ],
      [
        "Ġpouv",
        "oir"
      ],
      [
        "Ġch",
        "e"
      ],
      [
        "Ġa",
        "g"
      ],
      [
        "u",
        "de"
      ],
      [
        "Ġv",
        "os"
      ],
      [
        "Ġav",
        "oit"
      ],
      [
        "Ġin",
        "c"
      ],
      [
        "ist",
        "ra"
      ],
      [
        "ali",
        "tÃ©"
      ],
      [
        "Ġt",
        "er"
      ],
      [
        "rai",
        "re"
      ],
      [
        "m",
        "Ã©"
      ],
      [
        "Ġ",
        "us"
      ],
      [
        "an",
        "ces"
      ],
      [
        "tÃ©rÃª",
        "t"
      ],
      [
        "d",
        "es"
      ],
      [
        "v",
        "Ã©"
      ],
      [
        "Ġfem",
        "mes"
      ],
      [
        "Ġplais",
        "ir"
      ],
      [
        "i",
        "mp"
      ],
      [
        "Ġd",
        "oi"
      ],
      [
        "Ġs",
        "en"
      ],
      [
        "Ġcons",
        "er"
      ],
      [
        "Ġ",
        "U"
      ],
      [
        "Ġm",
        "Ãªmes"
      ],
      [
        "ent",
        "s"
      ],
      [
        "se",
        "ment"
      ],
      [
        "p",
        "ar"
      ],
      [
        "si",
        "r"
      ],
      [
        "il",
        "les"
      ],
      [
        "r",
        "ois"
      ],
      [
        "Ġse",
        "mbl"
      ],
      [
        "Ġsu",
        "ff"
      ],
      [
        "Ġm",
        "or"
      ],
      [
        "Ġjeu",
        "nes"
      ],
      [
        "Ġcomm",
        "un"
      ],
      [
        "Ġl",
        "oix"
      ],
      [
        "end",
        "ant"
      ],
      [
        "Ġpremi",
        "Ã¨re"
      ],
      [
        "ĠDi",
        "eu"
      ],
      [
        "Ġl",
        "Ã©g"
      ],
      [
        "Ã©t",
        "at"
      ],
      [
        "Ġpers",
        "onne"
      ],
      [
        "Ġn",
        "our"
      ],
      [
        "ti",
        "que"
      ],
      [
        "Ã¢",
        "t"
      ],
      [
        "il",
        "itÃ©"
      ],
      [
        "Ġt",
        "el"
      ],
      [
        "Ġch",
        "acun"
      ],
      [
        "ec",
        "t"
      ],
      [
        "ori",
        "tÃ©"
      ],
      [
        "Ġg",
        "ouver"
      ],
      [
        "Ġch",
        "ar"
      ],
      [
        "Ġtr",
        "ouve"
      ],
      [
        "am",
        "our"
      ],
      [
        "Ġdem",
        "and"
      ],
      [
        "ain",
        "s"
      ],
      [
        "o",
        "si"
      ],
      [
        "Ġl",
        "oin"
      ],
      [
        "is",
        "Ã©"
      ],
      [
        "Ã¨",
        "ve"
      ],
      [
        "Ġp",
        "ort"
      ],
      [
        "Ġs",
        "Ã»"
      ],
      [
        "Ġtr",
        "ouver"
      ],
      [
        "Ġenf",
        "in"
      ],
      [
        "Ġver",
        "tu"
      ],
      [
        "Ġpres",
        "que"
      ],
      [
        "c",
        "ri"
      ],
      [
        "Ġc",
        "i"
      ],
      [
        "Ġm",
        "ort"
      ],
      [
        "ch",
        "es"
      ],
      [
        "ĠdÃ©",
        "j"
      ],
      [
        "ĠdÃ©",
        "s"
      ],
      [
        "av",
        "oir"
      ],
      [
        "Ġin",
        "di"
      ],
      [
        "Ġseu",
        "lement"
      ],
      [
        "t",
        "out"
      ],
      [
        "Ġp",
        "oli"
      ],
      [
        "ai",
        "r"
      ],
      [
        "Ġenf",
        "ant"
      ],
      [
        "ex",
        "p"
      ],
      [
        "a",
        "re"
      ],
      [
        "qu",
        "oi"
      ],
      [
        "Ġn",
        "ul"
      ],
      [
        "Ġseu",
        "le"
      ],
      [
        "Ġtrav",
        "ail"
      ],
      [
        "ĠdÃ©j",
        "Ãł"
      ],
      [
        "c",
        "t"
      ],
      [
        "r",
        "o"
      ],
      [
        "v",
        "ant"
      ],
      [
        "Ġj",
        "our"
      ],
      [
        "Ġsu",
        "jet"
      ],
      [
        "it",
        "er"
      ],
      [
        "Ġsoci",
        "Ã©tÃ©"
      ],
      [
        "r",
        "ont"
      ],
      [
        "Ġ",
        "["
      ],
      [
        "ĠQ",
        "ue"
      ],
      [
        "Ġpuis",
        "se"
      ],
      [
        "ĠQu",
        "and"
      ],
      [
        "Ġdiff",
        "ic"
      ],
      [
        "Ġjeu",
        "ne"
      ],
      [
        "Ġl",
        "Ãł"
      ],
      [
        "Ġn",
        "om"
      ],
      [
        "Ġf",
        "ond"
      ],
      [
        "elle",
        "ment"
      ],
      [
        "j",
        "u"
      ],
      [
        "Ġa",
        "im"
      ],
      [
        "Ġf",
        "au"
      ],
      [
        "Ġpas",
        "sions"
      ],
      [
        "Ġex",
        "emp"
      ],
      [
        "i",
        "que"
      ],
      [
        "Ġa",
        "i"
      ],
      [
        "il",
        "es"
      ],
      [
        "ĠnÃ©cess",
        "aire"
      ],
      [
        "m",
        "is"
      ],
      [
        "Ġt",
        "erre"
      ],
      [
        "ĠC",
        "et"
      ],
      [
        "Ġbon",
        "heur"
      ],
      [
        "j",
        "e"
      ],
      [
        "Ġf",
        "i"
      ],
      [
        "Ġv",
        "u"
      ],
      [
        "Ġprin",
        "cip"
      ],
      [
        "ce",
        "p"
      ],
      [
        "Ġdis",
        "tin"
      ],
      [
        "Ġmo",
        "t"
      ],
      [
        "Ġeff",
        "et"
      ],
      [
        "Ġp",
        "ens"
      ],
      [
        "ag",
        "in"
      ],
      [
        "Ġre",
        "c"
      ],
      [
        "Ġin",
        "str"
      ],
      [
        "ĠprÃ©",
        "c"
      ],
      [
        "em",
        "s"
      ],
      [
        "l",
        "is"
      ],
      [
        "Ġ",
        "ut"
      ],
      [
        "Ġt",
        "ems"
      ],
      [
        "Ġg",
        "ar"
      ],
      [
        "Ġt",
        "u"
      ],
      [
        "Ġre",
        "m"
      ],
      [
        "Ġaut",
        "ant"
      ],
      [
        "f",
        "in"
      ],
      [
        "Ġb",
        "onne"
      ],
      [
        "li",
        "r"
      ],
      [
        "ĠE",
        "mile"
      ],
      [
        "ch",
        "ant"
      ],
      [
        "ien",
        "nent"
      ],
      [
        "Ġgrand",
        "e"
      ],
      [
        "Ġvou",
        "d"
      ],
      [
        "m",
        "Ãªmes"
      ],
      [
        "Ġs",
        "ais"
      ],
      [
        "Ġb",
        "r"
      ],
      [
        "c",
        "tion"
      ],
      [
        "Ġs",
        "ort"
      ],
      [
        "Ġr",
        "esp"
      ],
      [
        "Ġsou",
        "ff"
      ],
      [
        "Ġ[",
        "*"
      ],
      [
        "Ġa",
        "prÃ¨s"
      ],
      [
        "ti",
        "s"
      ],
      [
        "Ġp",
        "en"
      ],
      [
        "Ã©",
        "l"
      ],
      [
        "Ġdis",
        "p"
      ],
      [
        "Ġcont",
        "raire"
      ],
      [
        "Ġpro",
        "d"
      ],
      [
        "Ġ",
        "F"
      ],
      [
        "Ġm",
        "om"
      ],
      [
        "Ġn",
        "omb"
      ],
      [
        "ĠD",
        "ans"
      ],
      [
        "titu",
        "tion"
      ],
      [
        "Ã©t",
        "oit"
      ],
      [
        "i",
        "f"
      ],
      [
        "y",
        "ant"
      ],
      [
        "Ġs",
        "ouvent"
      ],
      [
        "ĠÃ",
        "ī"
      ],
      [
        "Ġre",
        "t"
      ],
      [
        "Ġcont",
        "ra"
      ],
      [
        "au",
        "v"
      ],
      [
        "Ġe",
        "Ã»t"
      ],
      [
        "Ġgo",
        "Ã»t"
      ],
      [
        "Ġf",
        "ut"
      ],
      [
        "Ġenf",
        "ans"
      ],
      [
        "Ġdoi",
        "vent"
      ],
      [
        "m",
        "ens"
      ],
      [
        "Ġpr",
        "endre"
      ],
      [
        "Ġre",
        "pr"
      ],
      [
        "as",
        "s"
      ],
      [
        "Ġal",
        "ors"
      ],
      [
        "g",
        "es"
      ],
      [
        "ĠÃ©",
        "le"
      ],
      [
        "ĠÃ©t",
        "ab"
      ],
      [
        "Ġcel",
        "les"
      ],
      [
        "Ġs",
        "el"
      ],
      [
        "Ġc",
        "ri"
      ],
      [
        "er",
        "n"
      ],
      [
        "Ġpr",
        "end"
      ],
      [
        "r",
        "ant"
      ],
      [
        "ĠdÃ©",
        "li"
      ],
      [
        "v",
        "es"
      ],
      [
        "Ã©",
        "qu"
      ],
      [
        "Ġhum",
        "ain"
      ],
      [
        "f",
        "ois"
      ],
      [
        "v",
        "res"
      ],
      [
        "Ġf",
        "in"
      ],
      [
        "Ġpeu",
        "vent"
      ],
      [
        "Ġp",
        "i"
      ],
      [
        "Ġa",
        "it"
      ],
      [
        "ri",
        "b"
      ],
      [
        "in",
        "t"
      ],
      [
        "Ġin",
        "d"
      ],
      [
        "Ġper",
        "d"
      ],
      [
        "m",
        "ble"
      ],
      [
        "ĠÃ©t",
        "ant"
      ],
      [
        "Ã©t",
        "end"
      ],
      [
        "Ġsent",
        "ir"
      ],
      [
        "Ġsenti",
        "ment"
      ],
      [
        "Ġauc",
        "un"
      ],
      [
        "Ġcit",
        "oyens"
      ],
      [
        "c",
        "ien"
      ],
      [
        "l",
        "le"
      ],
      [
        "il",
        "os"
      ],
      [
        "Ġtr",
        "omp"
      ],
      [
        "Ġvi",
        "ent"
      ],
      [
        "ĠprÃ©",
        "v"
      ],
      [
        "Ġmom",
        "ent"
      ],
      [
        "t",
        "ant"
      ],
      [
        "ti",
        "r"
      ],
      [
        "Ġi",
        "ci"
      ],
      [
        "uc",
        "ation"
      ],
      [
        "Ġid",
        "Ã©es"
      ],
      [
        "Ġnomb",
        "re"
      ],
      [
        "x",
        "i"
      ],
      [
        "Ġc",
        "l"
      ],
      [
        "Ġn",
        "ouv"
      ],
      [
        "Ġtr",
        "ouv"
      ],
      [
        "Ġme",
        "mb"
      ],
      [
        "ĠD",
        "e"
      ],
      [
        "Ġas",
        "s"
      ],
      [
        "Ġs",
        "uis"
      ],
      [
        "Ġgrand",
        "s"
      ],
      [
        "p",
        "i"
      ],
      [
        "Ġs",
        "orte"
      ],
      [
        "Ġm",
        "Ã¨re"
      ],
      [
        "Ġch",
        "ange"
      ],
      [
        "r",
        "an"
      ],
      [
        "Ġre",
        "mp"
      ],
      [
        ".",
        "]"
      ],
      [
        "Ġs",
        "ien"
      ],
      [
        "oi",
        "gn"
      ],
      [
        "Ġr",
        "en"
      ],
      [
        "e",
        "ff"
      ],
      [
        "Ġl",
        "ois"
      ],
      [
        "er",
        "a"
      ],
      [
        "ol",
        "u"
      ],
      [
        "ser",
        "v"
      ],
      [
        "Ġsel",
        "on"
      ],
      [
        "ui",
        "te"
      ],
      [
        "Ġvi",
        "vre"
      ],
      [
        "Ġmo",
        "eurs"
      ],
      [
        "Ġpeup",
        "les"
      ],
      [
        "Ġman",
        "iÃ¨re"
      ],
      [
        "b",
        "re"
      ],
      [
        "Ġcons",
        "id"
      ],
      [
        "Ġcomm",
        "en"
      ],
      [
        "ti",
        "me"
      ],
      [
        "v",
        "id"
      ],
      [
        "Ġcon",
        "d"
      ],
      [
        "ĠrÃ©",
        "f"
      ],
      [
        "ĠÃ¢",
        "ge"
      ],
      [
        "Ġfor",
        "me"
      ],
      [
        "g",
        "ent"
      ],
      [
        "Ġ",
        "ans"
      ],
      [
        "en",
        "ant"
      ],
      [
        "Ġn",
        "ais"
      ],
      [
        "ul",
        "ti"
      ],
      [
        "ĠV",
        "ous"
      ],
      [
        "Ã©",
        "m"
      ],
      [
        "Ġpas",
        "ser"
      ],
      [
        "Ġces",
        "se"
      ],
      [
        "Ġpro",
        "f"
      ],
      [
        "ĠU",
        "n"
      ],
      [
        "Ġpar",
        "ler"
      ],
      [
        "Ã¨",
        "ce"
      ],
      [
        "Ġre",
        "p"
      ],
      [
        "Ġcer",
        "t"
      ],
      [
        "Ġl",
        "ang"
      ],
      [
        "il",
        "i"
      ],
      [
        "Ġ",
        "B"
      ],
      [
        "Ġm",
        "ag"
      ],
      [
        "Ġm",
        "oyen"
      ],
      [
        "Ġf",
        "Ã»t"
      ],
      [
        "Ġch",
        "ez"
      ],
      [
        "Ġh",
        "eureux"
      ],
      [
        "Ġo",
        "c"
      ],
      [
        "ient",
        "Ã´t"
      ],
      [
        "s",
        "Ã©"
      ],
      [
        "oi",
        "e"
      ],
      [
        "Ġ&",
        ","
      ],
      [
        "Ġsu",
        "c"
      ],
      [
        "ĠdÃ©",
        "sir"
      ],
      [
        "ab",
        "ord"
      ],
      [
        "Ġquel",
        "ques"
      ],
      [
        "ĠN",
        "ous"
      ],
      [
        "Ġobjet",
        "s"
      ],
      [
        "ar",
        "t"
      ],
      [
        "Ġre",
        "l"
      ],
      [
        "Ġcon",
        "tin"
      ],
      [
        "Ġdis",
        "c"
      ],
      [
        "Ġcr",
        "ain"
      ],
      [
        "d",
        "s"
      ],
      [
        "Ġc",
        "as"
      ],
      [
        "Ġpl",
        "ace"
      ],
      [
        "ĠdÃ©p",
        "end"
      ],
      [
        "Ġph",
        "ilos"
      ],
      [
        "Ġs",
        "oin"
      ],
      [
        "Ġv",
        "ain"
      ],
      [
        "Ġpa",
        "u"
      ],
      [
        "ra",
        "ge"
      ],
      [
        "ouver",
        "ain"
      ],
      [
        "Ġac",
        "c"
      ],
      [
        "Ġreg",
        "ard"
      ],
      [
        "t",
        "te"
      ],
      [
        "Ġqu",
        "es"
      ],
      [
        "Ġm",
        "Ã©ri"
      ],
      [
        "Ġf",
        "l"
      ],
      [
        "ĠprÃ©",
        "ju"
      ],
      [
        "av",
        "ant"
      ],
      [
        "Ġan",
        "im"
      ],
      [
        "f",
        "s"
      ],
      [
        "Ġh",
        "onn"
      ],
      [
        "Ġre",
        "v"
      ],
      [
        "ĠC",
        "h"
      ],
      [
        "Ġpri",
        "x"
      ],
      [
        "ĠvÃ©ri",
        "t"
      ],
      [
        "Ġf",
        "oi"
      ],
      [
        "Ġf",
        "am"
      ],
      [
        "te",
        "mp"
      ],
      [
        "ie",
        "re"
      ],
      [
        "ĠR",
        "om"
      ],
      [
        "ĠgÃ©nÃ©ra",
        "le"
      ],
      [
        "om",
        "mes"
      ],
      [
        ".",
        "."
      ],
      [
        "g",
        "ue"
      ],
      [
        "Ġp",
        "orte"
      ],
      [
        "Ġm",
        "ouve"
      ],
      [
        "Ġv",
        "oix"
      ],
      [
        "Ġh",
        "abit"
      ],
      [
        "aut",
        "oritÃ©"
      ],
      [
        "Ġmo",
        "d"
      ],
      [
        "tri",
        "e"
      ],
      [
        "Ġ",
        "eu"
      ],
      [
        "Ġs",
        "oins"
      ],
      [
        "Ġr",
        "Ã¨"
      ],
      [
        "app",
        "r"
      ],
      [
        "Ġlib",
        "re"
      ],
      [
        "Ġesp",
        "rit"
      ],
      [
        "Ġm",
        "auv"
      ],
      [
        "Ġt",
        "on"
      ],
      [
        "ĠdÃ©",
        "v"
      ],
      [
        "Ã§",
        "ons"
      ],
      [
        "ĠrÃ©p",
        "ond"
      ],
      [
        "Ġmemb",
        "res"
      ],
      [
        "Ġ",
        "H"
      ],
      [
        "Ġb",
        "ientÃ´t"
      ],
      [
        "ĠA",
        "u"
      ],
      [
        "Ġimp",
        "ort"
      ],
      [
        "o",
        "pp"
      ],
      [
        "x",
        "e"
      ],
      [
        "ĠÃ©",
        "p"
      ],
      [
        "Ġin",
        "f"
      ],
      [
        "Ġcons",
        "Ã©qu"
      ],
      [
        "Ġab",
        "s"
      ],
      [
        "ĠÃ©l",
        "Ã¨ve"
      ],
      [
        "isÃ©",
        "ment"
      ],
      [
        "ĠCet",
        "te"
      ],
      [
        "l",
        "ent"
      ],
      [
        "eu",
        "se"
      ],
      [
        "le",
        "z"
      ],
      [
        "Ġpar",
        "mi"
      ],
      [
        "Ġme",
        "ill"
      ],
      [
        "ĠP",
        "ar"
      ],
      [
        "Ġquel",
        "le"
      ],
      [
        "Ġca",
        "p"
      ],
      [
        "ĠV",
        "oilÃł"
      ],
      [
        "g",
        "r"
      ],
      [
        "ĠÃ",
        "´"
      ],
      [
        "Ġar",
        "ri"
      ],
      [
        "Ġpeti",
        "t"
      ],
      [
        "u",
        "ri"
      ],
      [
        "en",
        "ces"
      ],
      [
        "Ã©",
        "rer"
      ],
      [
        "ac",
        "c"
      ],
      [
        "Ġma",
        "ri"
      ],
      [
        "Ġmet",
        "tre"
      ],
      [
        "Ġb",
        "or"
      ],
      [
        "Ġsur",
        "tout"
      ],
      [
        "Ġdevoir",
        "s"
      ],
      [
        "a",
        "ff"
      ],
      [
        "Ġ",
        "\""
      ],
      [
        "Ġp",
        "Ã¨re"
      ],
      [
        "Ġs",
        "oient"
      ],
      [
        "Ġf",
        "ra"
      ],
      [
        "el",
        "s"
      ],
      [
        "Ġau",
        "ra"
      ],
      [
        "tÃ©",
        "e"
      ],
      [
        "Ġpuis",
        "sance"
      ],
      [
        "Ġmes",
        "ure"
      ],
      [
        "oy",
        "ez"
      ],
      [
        "ĠprÃ©",
        "f"
      ],
      [
        "Ġmain",
        "s"
      ],
      [
        "ĠvÃ©rit",
        "able"
      ],
      [
        "Ġmauv",
        "ais"
      ],
      [
        "g",
        "rÃ©"
      ],
      [
        "i",
        "gn"
      ],
      [
        "u",
        "es"
      ],
      [
        "Ã",
        "ī"
      ],
      [
        "Ġc",
        "ent"
      ],
      [
        "Ãª",
        "tes"
      ],
      [
        "Ġh",
        "on"
      ],
      [
        "Ġo",
        "p"
      ],
      [
        "Ġma",
        "xi"
      ],
      [
        "ĠE",
        "lle"
      ],
      [
        "Ġpremi",
        "ers"
      ],
      [
        "Ġcou",
        "p"
      ],
      [
        "ĠvÃ©ri",
        "tÃ©"
      ],
      [
        "Ġpubli",
        "que"
      ],
      [
        "Ã©",
        "cu"
      ],
      [
        "Ġs",
        "it"
      ],
      [
        "Ġpour",
        "quoi"
      ],
      [
        "ĠC",
        "or"
      ],
      [
        "ĠÃ©t",
        "r"
      ],
      [
        "Ã®",
        "t"
      ],
      [
        "Ġconn",
        "ais"
      ],
      [
        "Ġca",
        "use"
      ],
      [
        "d",
        "ess"
      ],
      [
        "u",
        "bli"
      ],
      [
        "Ġmal",
        "h"
      ],
      [
        "Ġju",
        "ger"
      ],
      [
        "cl",
        "av"
      ],
      [
        "Ġlais",
        "ser"
      ],
      [
        "Ġ",
        "or"
      ],
      [
        "ou",
        "te"
      ],
      [
        "ent",
        "end"
      ],
      [
        "Ã¨",
        "te"
      ],
      [
        "Ġg",
        "ra"
      ],
      [
        "ĠdÃ©",
        "t"
      ],
      [
        "Ġapp",
        "ar"
      ],
      [
        "g",
        "Ã©s"
      ],
      [
        "Ġs",
        "ages"
      ],
      [
        "Ġv",
        "eux"
      ],
      [
        "ĠdÃ©",
        "c"
      ],
      [
        "Ġin",
        "tÃ©rÃªt"
      ],
      [
        "Ġparti",
        "e"
      ],
      [
        "Ġcher",
        "cher"
      ],
      [
        "ĠprÃ©s",
        "ent"
      ],
      [
        "Ġp",
        "or"
      ],
      [
        "ĠP",
        "ol"
      ],
      [
        "Ġimp",
        "os"
      ],
      [
        "a",
        "rer"
      ],
      [
        "Ġd",
        "ern"
      ],
      [
        "Ġn",
        "o"
      ],
      [
        "Ã¨",
        "me"
      ],
      [
        "Ġtr",
        "ou"
      ],
      [
        "Ġex",
        "er"
      ],
      [
        "Ġpri",
        "s"
      ],
      [
        "Ġquelque",
        "fois"
      ],
      [
        "ĠsÃ»",
        "r"
      ],
      [
        "Ġla",
        "qu"
      ],
      [
        "ti",
        "ve"
      ],
      [
        "ant",
        "es"
      ],
      [
        "ĠrÃ©",
        "g"
      ],
      [
        "rai",
        "t"
      ],
      [
        "Ġcr",
        "ois"
      ],
      [
        "Ġcomb",
        "ien"
      ],
      [
        "Ġexemp",
        "le"
      ],
      [
        "o",
        "Ã®tre"
      ],
      [
        "v",
        "is"
      ],
      [
        "es",
        "se"
      ],
      [
        "en",
        "u"
      ],
      [
        "Ġn",
        "ation"
      ],
      [
        "ti",
        "ce"
      ],
      [
        "Ġgouver",
        "n"
      ],
      [
        "l",
        "us"
      ],
      [
        "r",
        "ais"
      ],
      [
        "Ġs",
        "p"
      ],
      [
        "us",
        "er"
      ],
      [
        "om",
        "m"
      ],
      [
        "is",
        "e"
      ],
      [
        "onn",
        "es"
      ],
      [
        "ĠA",
        "insi"
      ],
      [
        "Ġmag",
        "istra"
      ],
      [
        "ĠCor",
        "ps"
      ],
      [
        "a",
        "ri"
      ],
      [
        "h",
        "onn"
      ],
      [
        "Ġ",
        "ord"
      ],
      [
        "Ġm",
        "ille"
      ],
      [
        "ouv",
        "rage"
      ],
      [
        "Ã©n",
        "at"
      ],
      [
        "cu",
        "p"
      ],
      [
        "Ġappr",
        "endre"
      ],
      [
        "Ġnaturel",
        "le"
      ],
      [
        "Ġsub",
        "s"
      ],
      [
        "oi",
        "si"
      ],
      [
        "Ġm",
        "Ã©p"
      ],
      [
        "Ġle",
        "quel"
      ],
      [
        "is",
        "te"
      ],
      [
        "ch",
        "Ã©"
      ],
      [
        "Ġent",
        "end"
      ],
      [
        "Ġhum",
        "aine"
      ],
      [
        "Ġvoul",
        "oir"
      ],
      [
        "y",
        "st"
      ],
      [
        "Ã©",
        "rÃ©"
      ],
      [
        "Ġm",
        "aux"
      ],
      [
        "Ġpl",
        "ut"
      ],
      [
        "ag",
        "er"
      ],
      [
        "Ġtr",
        "ai"
      ],
      [
        "i",
        "ci"
      ],
      [
        "Ã©",
        "v"
      ],
      [
        "Ġs",
        "oi"
      ],
      [
        "Ġf",
        "al"
      ],
      [
        "Ġcons",
        "titution"
      ],
      [
        "Ġrapport",
        "s"
      ],
      [
        "Ġci",
        "v"
      ],
      [
        "Ġplut",
        "Ã´t"
      ],
      [
        "a",
        "les"
      ],
      [
        "ent",
        "es"
      ],
      [
        "Ġf",
        "av"
      ],
      [
        "ti",
        "Ã©"
      ],
      [
        "Ġac",
        "qu"
      ],
      [
        "Ġpos",
        "sible"
      ],
      [
        "c",
        "Ã©"
      ],
      [
        "an",
        "itÃ©"
      ],
      [
        "Ġv",
        "oilÃł"
      ],
      [
        "us",
        "es"
      ],
      [
        "is",
        "ter"
      ],
      [
        "at",
        "s"
      ],
      [
        "ĠN",
        "on"
      ],
      [
        "Ġauc",
        "une"
      ],
      [
        "Ġrec",
        "onn"
      ],
      [
        "a",
        "p"
      ],
      [
        "l",
        "eurs"
      ],
      [
        "ti",
        "e"
      ],
      [
        "ti",
        "ent"
      ],
      [
        "in",
        "str"
      ],
      [
        "Ġch",
        "oix"
      ],
      [
        "onn",
        "er"
      ],
      [
        "Ã®",
        "tres"
      ],
      [
        "Ġcomm",
        "ence"
      ],
      [
        "Ġdroit",
        "s"
      ],
      [
        "i",
        "re"
      ],
      [
        "Ã©",
        "c"
      ],
      [
        "on",
        "de"
      ],
      [
        "Ġs",
        "age"
      ],
      [
        "Ġg",
        "en"
      ],
      [
        "Ġjuge",
        "ment"
      ],
      [
        "en",
        "ez"
      ],
      [
        "Ġre",
        "f"
      ],
      [
        "Ġre",
        "lig"
      ],
      [
        "Ġma",
        "Ã®tres"
      ],
      [
        "Ġmo",
        "ts"
      ],
      [
        "Ġbes",
        "oins"
      ],
      [
        "ĠR",
        "Ã©p"
      ],
      [
        "Ġsen",
        "sible"
      ],
      [
        "g",
        "ment"
      ],
      [
        "Ġt",
        "omb"
      ],
      [
        "Ġt",
        "Ãªte"
      ],
      [
        "is",
        "sent"
      ],
      [
        "ĠÃ©",
        "c"
      ],
      [
        "ag",
        "ne"
      ],
      [
        "ĠN",
        "e"
      ],
      [
        "Ġj",
        "ours"
      ],
      [
        "me",
        "t"
      ],
      [
        "ce",
        "voir"
      ],
      [
        "Ġsa",
        "v"
      ],
      [
        "Ã©ri",
        "ence"
      ],
      [
        "Ġmain",
        "t"
      ],
      [
        "Ġparticuli",
        "er"
      ],
      [
        "Ġfau",
        "d"
      ],
      [
        "Ġlaqu",
        "elle"
      ],
      [
        "Ġl",
        "u"
      ],
      [
        "re",
        "ux"
      ],
      [
        "is",
        "l"
      ],
      [
        "ec",
        "tion"
      ],
      [
        "Ã©ri",
        "r"
      ],
      [
        "ĠT",
        "out"
      ],
      [
        "Ġemp",
        "l"
      ],
      [
        "Ġques",
        "tion"
      ],
      [
        "dess",
        "us"
      ],
      [
        "ĠRÃ©p",
        "ubli"
      ],
      [
        "i",
        "eurs"
      ],
      [
        "p",
        "endant"
      ],
      [
        "Ġr",
        "ess"
      ],
      [
        "Ġpr",
        "om"
      ],
      [
        "si",
        "tÃ©"
      ],
      [
        "ĠdÃ©",
        "g"
      ],
      [
        "Ġatt",
        "ent"
      ],
      [
        "Ġid",
        "Ã©e"
      ],
      [
        "Ġserv",
        "ir"
      ],
      [
        "Ġsimp",
        "le"
      ],
      [
        "Ġdiffic",
        "ile"
      ],
      [
        "Ġcontin",
        "u"
      ],
      [
        "e",
        "il"
      ],
      [
        "g",
        "le"
      ],
      [
        "Ġm",
        "oyens"
      ],
      [
        "Ġt",
        "e"
      ],
      [
        "Ġre",
        "Ã§"
      ],
      [
        "Ġdou",
        "te"
      ],
      [
        "Ġut",
        "ile"
      ],
      [
        "g",
        "Ã©"
      ],
      [
        "ent",
        "re"
      ],
      [
        "Ġt",
        "ient"
      ],
      [
        "Ġb",
        "ou"
      ],
      [
        "res",
        "se"
      ],
      [
        "Ġtr",
        "ans"
      ],
      [
        "ci",
        "tÃ©"
      ],
      [
        "Ġser",
        "ont"
      ],
      [
        "ĠIl",
        "s"
      ],
      [
        "Ġpeti",
        "ts"
      ],
      [
        "est",
        "e"
      ],
      [
        "Ġr",
        "oi"
      ],
      [
        "is",
        "s"
      ],
      [
        "rai",
        "ent"
      ],
      [
        "st",
        "ant"
      ],
      [
        "Ġparticuli",
        "ers"
      ],
      [
        "Ġsen",
        "si"
      ],
      [
        "u",
        "p"
      ],
      [
        "en",
        "ne"
      ],
      [
        "in",
        "er"
      ],
      [
        "te",
        "z"
      ],
      [
        "ĠdÃ©",
        "tr"
      ],
      [
        "Ġcon",
        "c"
      ],
      [
        "ul",
        "tÃ©s"
      ],
      [
        "Ã¢",
        "me"
      ],
      [
        "Ġdev",
        "ient"
      ],
      [
        "Ġlais",
        "se"
      ],
      [
        "Ġatt",
        "a"
      ],
      [
        "Ġdistin",
        "gu"
      ],
      [
        "h",
        "um"
      ],
      [
        "our",
        "d"
      ],
      [
        "tÃ©",
        "ri"
      ],
      [
        "Ġpr",
        "Ã©tend"
      ],
      [
        "Ġplus",
        "ieurs"
      ],
      [
        "Ġin",
        "ter"
      ],
      [
        "Ġimp",
        "orte"
      ],
      [
        "Ġpoli",
        "tique"
      ],
      [
        "c",
        "a"
      ],
      [
        "r",
        "ui"
      ],
      [
        "Ġc",
        "roit"
      ],
      [
        "Ġv",
        "is"
      ],
      [
        "Ġpa",
        "trie"
      ],
      [
        "Ã©g",
        "alitÃ©"
      ],
      [
        "temp",
        "s"
      ],
      [
        "Ġs",
        "in"
      ],
      [
        "qu",
        "i"
      ],
      [
        "Ġm",
        "Ã©t"
      ],
      [
        "us",
        "age"
      ],
      [
        "Ġse",
        "mble"
      ],
      [
        "Ġh",
        "ors"
      ],
      [
        "Ġdi",
        "vers"
      ],
      [
        "Ġbien",
        "s"
      ],
      [
        "Ġcr",
        "oire"
      ],
      [
        "erre",
        "ur"
      ],
      [
        "Ġti",
        "rer"
      ],
      [
        "Ġsembl",
        "ables"
      ],
      [
        "Ġrem",
        "ar"
      ],
      [
        "Ġf",
        "ille"
      ],
      [
        "Ġpar",
        "le"
      ],
      [
        "ag",
        "it"
      ],
      [
        "Ġri",
        "ches"
      ],
      [
        "Ã©ra",
        "tion"
      ],
      [
        "Ġconn",
        "aÃ®tre"
      ],
      [
        "ĠdiffÃ©r",
        "ence"
      ],
      [
        "Ġim",
        "agin"
      ],
      [
        "ĠÃī",
        "mile"
      ],
      [
        "h",
        "abit"
      ],
      [
        "Ã",
        "¯"
      ],
      [
        "Ġt",
        "al"
      ],
      [
        "oin",
        "dre"
      ],
      [
        "Ġsi",
        "gn"
      ],
      [
        "Ġconn",
        "ois"
      ],
      [
        "quel",
        "s"
      ],
      [
        "Ġport",
        "er"
      ],
      [
        "Ġphilos",
        "oph"
      ],
      [
        "Ġfra",
        "pp"
      ],
      [
        "a",
        "lement"
      ],
      [
        "o",
        "t"
      ],
      [
        "r",
        "ain"
      ],
      [
        "en",
        "se"
      ],
      [
        "re",
        "t"
      ],
      [
        "in",
        "tÃ©rÃªt"
      ],
      [
        "Ġh",
        "eure"
      ],
      [
        "ch",
        "ent"
      ],
      [
        "ĠS",
        "ouverain"
      ],
      [
        "ĠO",
        "r"
      ],
      [
        "ĠprÃ©ju",
        "gÃ©s"
      ],
      [
        "o",
        "g"
      ],
      [
        "o",
        "de"
      ],
      [
        "in",
        "ion"
      ],
      [
        "Ġfor",
        "ces"
      ],
      [
        "Ġpubli",
        "c"
      ],
      [
        "Ġconser",
        "ver"
      ],
      [
        "Ġdisc",
        "ours"
      ],
      [
        "le",
        "x"
      ],
      [
        "Ġav",
        "ez"
      ],
      [
        "ĠC",
        "es"
      ],
      [
        "ĠÃ©t",
        "oient"
      ],
      [
        "cou",
        "tu"
      ],
      [
        "Ã©d",
        "ucation"
      ],
      [
        "Ġesp",
        "Ã¨ce"
      ],
      [
        "Ġplaisir",
        "s"
      ],
      [
        "Ġfam",
        "ille"
      ],
      [
        "Ġrelig",
        "ion"
      ],
      [
        "i",
        "es"
      ],
      [
        "l",
        "u"
      ],
      [
        "Ġp",
        "ie"
      ],
      [
        "Ġav",
        "ons"
      ],
      [
        "Ġcr",
        "u"
      ],
      [
        "oc",
        "ra"
      ],
      [
        "Ġappr",
        "end"
      ],
      [
        "Ġgo",
        "Ã»"
      ],
      [
        "ĠmÃ©ri",
        "te"
      ],
      [
        "n",
        "Ã©"
      ],
      [
        "o",
        "le"
      ],
      [
        "Ġf",
        "a"
      ],
      [
        "Ġau",
        "roit"
      ],
      [
        "Ġpl",
        "u"
      ],
      [
        "Ġprop",
        "or"
      ],
      [
        "Ġsenti",
        "ments"
      ],
      [
        "i",
        "ble"
      ],
      [
        "Ġc",
        "ol"
      ],
      [
        "el",
        "opp"
      ],
      [
        "Ġpl",
        "ain"
      ],
      [
        "Ġg",
        "ouvernement"
      ],
      [
        "ĠdÃ©",
        "m"
      ],
      [
        "Ġre",
        "cher"
      ],
      [
        "av",
        "oit"
      ],
      [
        "Ġfait",
        "s"
      ],
      [
        "ul",
        "t"
      ],
      [
        "Ã¢",
        "ge"
      ],
      [
        "Ġjus",
        "te"
      ],
      [
        "ĠgÃ©nÃ©ra",
        "l"
      ],
      [
        "Ġag",
        "rÃ©"
      ],
      [
        "osi",
        "tion"
      ],
      [
        ".",
        "\""
      ],
      [
        "c",
        "Ã¨s"
      ],
      [
        "r",
        "oient"
      ],
      [
        "y",
        "si"
      ],
      [
        "Ġc",
        "Ã´"
      ],
      [
        "Ġt",
        "ard"
      ],
      [
        "Ġf",
        "it"
      ],
      [
        "Ġv",
        "ers"
      ],
      [
        "ve",
        "z"
      ],
      [
        "ĠQu",
        "el"
      ],
      [
        "Ã©p",
        "ar"
      ],
      [
        "Ġsujet",
        "s"
      ],
      [
        "Ġmouve",
        "ment"
      ],
      [
        "v",
        "in"
      ],
      [
        "Ġs",
        "or"
      ],
      [
        "Ġpr",
        "Ãª"
      ],
      [
        "ĠÃ©",
        "d"
      ],
      [
        "Ġse",
        "xe"
      ],
      [
        "Ġe",
        "mb"
      ],
      [
        "Ġin",
        "ut"
      ],
      [
        "Ġtr",
        "ois"
      ],
      [
        "Ġo",
        "ff"
      ],
      [
        "av",
        "ois"
      ],
      [
        "di",
        "re"
      ],
      [
        "Ġrais",
        "ons"
      ],
      [
        "Ġconn",
        "oÃ®tre"
      ],
      [
        "Ġjus",
        "tice"
      ],
      [
        "ob",
        "jet"
      ],
      [
        "titu",
        "de"
      ],
      [
        "Ġmont",
        "rer"
      ],
      [
        "Ġgu",
        "Ã¨re"
      ],
      [
        "ĠlÃ©g",
        "isl"
      ],
      [
        "Ġdemand",
        "e"
      ],
      [
        "cien",
        "ce"
      ],
      [
        "e",
        "Ã»t"
      ],
      [
        "i",
        "vers"
      ],
      [
        "v",
        "i"
      ],
      [
        "v",
        "ation"
      ],
      [
        "en",
        "nent"
      ],
      [
        "Ã©",
        "le"
      ],
      [
        "Ġt",
        "a"
      ],
      [
        "Ġlong",
        "temps"
      ],
      [
        "Ġpens",
        "er"
      ],
      [
        "avant",
        "age"
      ],
      [
        "ĠRÃ©publi",
        "que"
      ],
      [
        "c",
        "le"
      ],
      [
        "c",
        "iens"
      ],
      [
        "o",
        "d"
      ],
      [
        "Ġpar",
        "aÃ®t"
      ],
      [
        "Ġpour",
        "tant"
      ],
      [
        "Ġi",
        "gn"
      ],
      [
        "Ġpro",
        "gr"
      ],
      [
        "Ġmal",
        "grÃ©"
      ],
      [
        "Ġcor",
        "r"
      ],
      [
        "Ġmont",
        "re"
      ],
      [
        "Ġprogr",
        "Ã¨s"
      ],
      [
        "f",
        "ai"
      ],
      [
        "s",
        "ances"
      ],
      [
        "t",
        "us"
      ],
      [
        "Ġt",
        "end"
      ],
      [
        "ti",
        "er"
      ],
      [
        "in",
        "es"
      ],
      [
        "Ġb",
        "ras"
      ],
      [
        "ar",
        "ras"
      ],
      [
        "ĠC",
        "el"
      ],
      [
        "Ã©t",
        "ab"
      ],
      [
        "Ġvi",
        "ol"
      ],
      [
        "ĠA",
        "l"
      ],
      [
        "Ġcar",
        "ac"
      ],
      [
        "Ġpau",
        "vre"
      ],
      [
        ".",
        "*"
      ],
      [
        "n",
        "Ã©e"
      ],
      [
        "Ġd",
        "om"
      ],
      [
        "er",
        "ce"
      ],
      [
        "Ġn",
        "Ã©g"
      ],
      [
        "Ġf",
        "ils"
      ],
      [
        "Ġv",
        "a"
      ],
      [
        "li",
        "c"
      ],
      [
        "Ġli",
        "vre"
      ],
      [
        "Ġfor",
        "m"
      ],
      [
        "Ġgr",
        "os"
      ],
      [
        "Ġob",
        "Ã©"
      ],
      [
        "Ġanim",
        "aux"
      ],
      [
        "ĠdÃ©v",
        "elopp"
      ],
      [
        "Ġgen",
        "re"
      ],
      [
        "e",
        "ce"
      ],
      [
        "Ġs",
        "ang"
      ],
      [
        "Ġpa",
        "re"
      ],
      [
        "or",
        "me"
      ],
      [
        "Ġpr",
        "Ã¨s"
      ],
      [
        "ar",
        "de"
      ],
      [
        "im",
        "agin"
      ],
      [
        "Ġemp",
        "Ãª"
      ],
      [
        "min",
        "istra"
      ],
      [
        "Ġjeunes",
        "se"
      ],
      [
        "Ġt",
        "oi"
      ],
      [
        "Ġv",
        "ille"
      ],
      [
        "li",
        "tÃ©"
      ],
      [
        "aut",
        "ant"
      ],
      [
        "ĠS",
        "Ã©nat"
      ],
      [
        "Ġcon",
        "di"
      ],
      [
        "Ġser",
        "t"
      ],
      [
        "Ġfait",
        "es"
      ],
      [
        "Ġgrand",
        "es"
      ],
      [
        "Ġcit",
        "oyen"
      ],
      [
        "att",
        "a"
      ],
      [
        "Ġsui",
        "vre"
      ],
      [
        "Ġresp",
        "ec"
      ],
      [
        "Ġprod",
        "uit"
      ],
      [
        "honn",
        "eur"
      ],
      [
        "Ġp",
        "Ã©n"
      ],
      [
        "Ġt",
        "y"
      ],
      [
        "Ġle",
        "Ã§ons"
      ],
      [
        "our",
        "ce"
      ],
      [
        "Ġun",
        "s"
      ],
      [
        "ar",
        "gent"
      ],
      [
        "ĠdÃ©",
        "d"
      ],
      [
        "Ġin",
        "t"
      ],
      [
        "Ġdev",
        "ant"
      ],
      [
        "Ġob",
        "serv"
      ],
      [
        "Ġrest",
        "er"
      ],
      [
        "Ġoc",
        "cup"
      ],
      [
        "Ġd",
        "Ã¨s"
      ],
      [
        "Ġa",
        "j"
      ],
      [
        "Ġm",
        "u"
      ],
      [
        "Ġt",
        "ent"
      ],
      [
        "Ã¨",
        "le"
      ],
      [
        "Ġpas",
        "se"
      ],
      [
        "Ġri",
        "che"
      ],
      [
        "ĠE",
        "tat"
      ],
      [
        "Ġver",
        "tus"
      ],
      [
        "ĠnÃ©ces",
        "sitÃ©"
      ],
      [
        "Ġpropor",
        "tion"
      ],
      [
        "t",
        "Ã´t"
      ],
      [
        "au",
        "c"
      ],
      [
        "Ġpas",
        "s"
      ],
      [
        "Ġch",
        "anger"
      ],
      [
        "and",
        "is"
      ],
      [
        "Ġcomm",
        "une"
      ],
      [
        "Ġco",
        "eurs"
      ],
      [
        "Ġprop",
        "res"
      ],
      [
        "Ġconn",
        "aÃ®t"
      ],
      [
        "Ġfer",
        "a"
      ],
      [
        "Ġconv",
        "en"
      ],
      [
        "Ġsuff",
        "it"
      ],
      [
        "Ġmor",
        "ale"
      ],
      [
        "Ġfau",
        "te"
      ],
      [
        "Ġprincip",
        "e"
      ],
      [
        "a",
        "prÃ¨s"
      ],
      [
        "Ġs",
        "ol"
      ],
      [
        "Ġm",
        "oindre"
      ],
      [
        "Ġf",
        "our"
      ],
      [
        "Ġpour",
        "roit"
      ],
      [
        "ĠdÃ©",
        "ter"
      ],
      [
        "Ġo",
        "pp"
      ],
      [
        "ul",
        "te"
      ],
      [
        "Ġcont",
        "ent"
      ],
      [
        "Ã¢",
        "che"
      ],
      [
        "Ġgu",
        "erre"
      ],
      [
        "Ġus",
        "age"
      ],
      [
        "ĠdÃ©sir",
        "s"
      ],
      [
        "a",
        "yant"
      ],
      [
        "c",
        "on"
      ],
      [
        "Ġp",
        "un"
      ],
      [
        "Ġp",
        "eur"
      ],
      [
        "Ġs",
        "yst"
      ],
      [
        "Ġa",
        "isÃ©ment"
      ],
      [
        "eu",
        "ses"
      ],
      [
        "Ġen",
        "g"
      ],
      [
        "Ġr",
        "a"
      ],
      [
        "ĠÃ©",
        "cl"
      ],
      [
        "Ã©t",
        "ois"
      ],
      [
        "Ġvi",
        "ces"
      ],
      [
        "Ġrais",
        "onne"
      ],
      [
        "ist",
        "ance"
      ],
      [
        "ist",
        "oire"
      ],
      [
        "mÃ©",
        "di"
      ],
      [
        "Ġai",
        "me"
      ],
      [
        "Ġpen",
        "se"
      ],
      [
        "Ġret",
        "our"
      ],
      [
        "Ġrepr",
        "Ã©s"
      ],
      [
        "ĠconsÃ©qu",
        "ent"
      ],
      [
        "Ġmeill",
        "eur"
      ],
      [
        "Ġmaxi",
        "mes"
      ],
      [
        "Ġpor",
        "tÃ©e"
      ],
      [
        "Ġs",
        "ommes"
      ],
      [
        "Ġt",
        "enir"
      ],
      [
        "Ġf",
        "asse"
      ],
      [
        "Ġpar",
        "v"
      ],
      [
        "Ġpr",
        "ati"
      ],
      [
        "ĠÃ©",
        "ch"
      ],
      [
        "op",
        "inion"
      ],
      [
        "ort",
        "er"
      ],
      [
        "Ġli",
        "vres"
      ],
      [
        "ĠrÃ©",
        "un"
      ],
      [
        "Ã§",
        "on"
      ],
      [
        "ĠÃ©g",
        "alement"
      ],
      [
        "Ġcert",
        "ain"
      ],
      [
        "ĠPol",
        "o"
      ],
      [
        "Ġlu",
        "mi"
      ],
      [
        "i",
        "end"
      ],
      [
        "l",
        "ais"
      ],
      [
        "u",
        "d"
      ],
      [
        "v",
        "al"
      ],
      [
        "Ġa",
        "yant"
      ],
      [
        "Ġv",
        "ue"
      ],
      [
        "Ã¨",
        "ne"
      ],
      [
        "Ġg",
        "l"
      ],
      [
        "ien",
        "ne"
      ],
      [
        "ie",
        "z"
      ],
      [
        "Ġou",
        "bli"
      ],
      [
        "Ġex",
        "am"
      ],
      [
        "Ġfor",
        "mer"
      ],
      [
        "Ġdonn",
        "Ã©"
      ],
      [
        "Ġconv",
        "ient"
      ],
      [
        "Ġins",
        "titu"
      ],
      [
        "Ġpart",
        "out"
      ],
      [
        "Ġindi",
        "vid"
      ],
      [
        "Ġprincip",
        "es"
      ],
      [
        "Ġimpos",
        "sible"
      ],
      [
        "ĠcÃ´",
        "tÃ©"
      ],
      [
        "ĠPolo",
        "gne"
      ],
      [
        "en",
        "oit"
      ],
      [
        "Ġv",
        "in"
      ],
      [
        "ti",
        "ques"
      ],
      [
        "Ġen",
        "se"
      ],
      [
        "Ġfai",
        "bles"
      ],
      [
        "Ġex",
        "ac"
      ],
      [
        "ĠEn",
        "fin"
      ],
      [
        "ati",
        "ve"
      ],
      [
        "ĠÃ©g",
        "ard"
      ],
      [
        "ĠsÃ»",
        "re"
      ],
      [
        "Ġaim",
        "er"
      ],
      [
        "ĠÃ©tab",
        "li"
      ],
      [
        "Ġmalh",
        "eureux"
      ],
      [
        "n",
        "ous"
      ],
      [
        "Ġc",
        "ulti"
      ],
      [
        "ai",
        "mer"
      ],
      [
        "Ġt",
        "elle"
      ],
      [
        "Ġt",
        "Ã©m"
      ],
      [
        "Ġv",
        "it"
      ],
      [
        "Ġr",
        "ang"
      ],
      [
        "Ġb",
        "out"
      ],
      [
        "Ġpl",
        "aÃ®t"
      ],
      [
        "ar",
        "b"
      ],
      [
        "Ġg",
        "ag"
      ],
      [
        "Ġmais",
        "on"
      ],
      [
        "Ġsau",
        "v"
      ],
      [
        "Ġserv",
        "i"
      ],
      [
        "Ġfac",
        "ile"
      ],
      [
        "Ġche",
        "fs"
      ],
      [
        "eff",
        "et"
      ],
      [
        "c",
        "tions"
      ],
      [
        "d",
        "it"
      ],
      [
        "l",
        "eur"
      ],
      [
        "r",
        "Ã©e"
      ],
      [
        "Ġa",
        "fin"
      ],
      [
        "Ġt",
        "ris"
      ],
      [
        "Ġf",
        "us"
      ],
      [
        "Ġv",
        "rais"
      ],
      [
        "ri",
        "n"
      ],
      [
        "ui",
        "ts"
      ],
      [
        "Ġun",
        "ique"
      ],
      [
        "Ġli",
        "v"
      ],
      [
        "Ġent",
        "endre"
      ],
      [
        "Ġsoci",
        "al"
      ],
      [
        "Ġsec",
        "ond"
      ],
      [
        "Ġes",
        "clav"
      ],
      [
        "Ġnour",
        "ri"
      ],
      [
        "exp",
        "Ã©rience"
      ],
      [
        "Ġresp",
        "ect"
      ],
      [
        "ministra",
        "tion"
      ],
      [
        "e",
        "re"
      ],
      [
        "u",
        "res"
      ],
      [
        "Ġm",
        "Ã©d"
      ],
      [
        "Ġt",
        "Ã´t"
      ],
      [
        "Ġen",
        "v"
      ],
      [
        "Ġau",
        "gment"
      ],
      [
        "Ġdu",
        "rant"
      ],
      [
        "ure",
        "r"
      ],
      [
        "di",
        "tÃ©"
      ],
      [
        "Ġvi",
        "v"
      ],
      [
        "Ã´",
        "tre"
      ],
      [
        "Ġdev",
        "enir"
      ],
      [
        "Ġprop",
        "os"
      ],
      [
        "Ġso",
        "li"
      ],
      [
        "gu",
        "eur"
      ],
      [
        "Ġparticuli",
        "Ã¨re"
      ],
      [
        "Ġinc",
        "on"
      ],
      [
        "Ġremp",
        "lir"
      ],
      [
        "v",
        "u"
      ],
      [
        "Ġs",
        "ouver"
      ],
      [
        "Ġm",
        "ulti"
      ],
      [
        "Ã¨",
        "rent"
      ],
      [
        "at",
        "eur"
      ],
      [
        "ir",
        "ent"
      ],
      [
        "am",
        "ment"
      ],
      [
        "oy",
        "er"
      ],
      [
        "Ã©r",
        "ence"
      ],
      [
        "Ã©ra",
        "tions"
      ],
      [
        "Ã§",
        "oit"
      ],
      [
        "ĠÃ©l",
        "oign"
      ],
      [
        "Ġsau",
        "roit"
      ],
      [
        "Ġph",
        "ysi"
      ],
      [
        "Ġfais",
        "ant"
      ],
      [
        "Ġsouff",
        "rir"
      ],
      [
        "Ġfaud",
        "roit"
      ],
      [
        "habit",
        "ude"
      ],
      [
        "Ġmulti",
        "p"
      ],
      [
        "o",
        "Ã¹"
      ],
      [
        "Ġd",
        "ange"
      ],
      [
        "Ġp",
        "le"
      ],
      [
        "Ġs",
        "uit"
      ],
      [
        "ou",
        "x"
      ],
      [
        "an",
        "ti"
      ],
      [
        "Ġv",
        "eu"
      ],
      [
        "Ġdou",
        "x"
      ],
      [
        "ĠrÃ©f",
        "lex"
      ],
      [
        "Ãī",
        "tat"
      ],
      [
        "Ġsages",
        "se"
      ],
      [
        "e",
        "ment"
      ],
      [
        "l",
        "ant"
      ],
      [
        "t",
        "ent"
      ],
      [
        "t",
        "ra"
      ],
      [
        "Ġc",
        "uri"
      ],
      [
        "Ġa",
        "ir"
      ],
      [
        "il",
        "ler"
      ],
      [
        "us",
        "te"
      ],
      [
        "li",
        "quer"
      ],
      [
        "am",
        "bre"
      ],
      [
        "Ġsur",
        "p"
      ],
      [
        "aut",
        "rui"
      ],
      [
        "av",
        "ec"
      ],
      [
        "Ġma",
        "ti"
      ],
      [
        "Ġcont",
        "rain"
      ],
      [
        "ĠQ",
        "ui"
      ],
      [
        "Ġpuis",
        "que"
      ],
      [
        "ur",
        "op"
      ],
      [
        "Ġac",
        "tions"
      ],
      [
        "Ã©ra",
        "ble"
      ],
      [
        "Ġatt",
        "end"
      ],
      [
        "ĠPour",
        "quoi"
      ],
      [
        "v",
        "Ã©n"
      ],
      [
        "en",
        "us"
      ],
      [
        "Ġt",
        "able"
      ],
      [
        "Ġav",
        "oient"
      ],
      [
        "ĠC",
        "om"
      ],
      [
        "ort",
        "s"
      ],
      [
        "Ġaut",
        "our"
      ],
      [
        "gn",
        "er"
      ],
      [
        "ĠT",
        "ous"
      ],
      [
        "Ġfort",
        "une"
      ],
      [
        "Ġcarac",
        "t"
      ],
      [
        "Ġp",
        "ai"
      ],
      [
        "Ġp",
        "ure"
      ],
      [
        "qu",
        "elles"
      ],
      [
        "Ġm",
        "ou"
      ],
      [
        "tÃ©",
        "res"
      ],
      [
        "ĠC",
        "ar"
      ],
      [
        "Ġtr",
        "an"
      ],
      [
        "ex",
        "emp"
      ],
      [
        "onc",
        "er"
      ],
      [
        "Ġper",
        "dre"
      ],
      [
        "Ġman",
        "iere"
      ],
      [
        "Ġsien",
        "ne"
      ],
      [
        "Ġsit",
        "Ã´t"
      ],
      [
        "ĠmÃ©t",
        "h"
      ],
      [
        "ĠÃ©d",
        "ucation"
      ],
      [
        "ĠAl",
        "ors"
      ],
      [
        "h",
        "Ã©"
      ],
      [
        "h",
        "istoire"
      ],
      [
        "er",
        "es"
      ],
      [
        "Ġv",
        "al"
      ],
      [
        "ti",
        "ens"
      ],
      [
        "ri",
        "tÃ©"
      ],
      [
        "Ġj",
        "eux"
      ],
      [
        "Ġb",
        "ons"
      ],
      [
        "Ġb",
        "onnes"
      ],
      [
        "au",
        "rois"
      ],
      [
        "Ġg",
        "ard"
      ],
      [
        "li",
        "citÃ©"
      ],
      [
        "Ã©t",
        "ant"
      ],
      [
        "Ġenf",
        "an"
      ],
      [
        "Ġob",
        "ser"
      ],
      [
        "Ġrais",
        "onn"
      ],
      [
        "Ġac",
        "te"
      ],
      [
        "ob",
        "Ã©"
      ],
      [
        "ail",
        "leurs"
      ],
      [
        "Ġan",
        "ciens"
      ],
      [
        "Ġab",
        "us"
      ],
      [
        "Ġvoy",
        "ant"
      ],
      [
        "Ġsimp",
        "les"
      ],
      [
        "ĠÃ©tr",
        "ang"
      ],
      [
        "Ġdern",
        "ier"
      ],
      [
        "ĠmÃ©p",
        "ris"
      ],
      [
        "Ġty",
        "ran"
      ],
      [
        "Ġl",
        "ors"
      ],
      [
        "qu",
        "Ã©"
      ],
      [
        "Ġm",
        "in"
      ],
      [
        "Ġm",
        "ili"
      ],
      [
        "Ġf",
        "eu"
      ],
      [
        "ri",
        "se"
      ],
      [
        "in",
        "stant"
      ],
      [
        "and",
        "e"
      ],
      [
        "Ġson",
        "ge"
      ],
      [
        "ĠrÃ©",
        "v"
      ],
      [
        "ĠÃª",
        "tres"
      ],
      [
        "ĠM",
        "on"
      ],
      [
        "ex",
        "er"
      ],
      [
        "Ġcomp",
        "ar"
      ],
      [
        "enf",
        "ance"
      ],
      [
        "Ġaff",
        "ec"
      ],
      [
        "ĠdÃ©f",
        "aut"
      ],
      [
        "Ġsouver",
        "aine"
      ],
      [
        "Ġmultip",
        "li"
      ],
      [
        "c",
        "ent"
      ],
      [
        "l",
        "a"
      ],
      [
        "t",
        "ance"
      ],
      [
        "Ġm",
        "en"
      ],
      [
        "Ġm",
        "Ãª"
      ],
      [
        "ĠÃ©",
        "cou"
      ],
      [
        "Ġsa",
        "vent"
      ],
      [
        "Ã§",
        "ois"
      ],
      [
        "ĠQu",
        "oi"
      ],
      [
        "Ġavant",
        "age"
      ],
      [
        "uc",
        "tion"
      ],
      [
        "Ġam",
        "our"
      ],
      [
        "Ġconser",
        "vation"
      ],
      [
        "Ġindi",
        "ff"
      ],
      [
        "Ġcond",
        "uite"
      ],
      [
        "a",
        "de"
      ],
      [
        "r",
        "ons"
      ],
      [
        "Ġs",
        "c"
      ],
      [
        "Ġn",
        "aÃ®tre"
      ],
      [
        "Ġf",
        "rÃ©"
      ],
      [
        "in",
        "aire"
      ],
      [
        "Ġau",
        "quel"
      ],
      [
        "is",
        "sant"
      ],
      [
        "res",
        "sion"
      ],
      [
        "ĠL",
        "A"
      ],
      [
        "Ġri",
        "s"
      ],
      [
        "Ġex",
        "i"
      ],
      [
        "ĠrÃ©",
        "d"
      ],
      [
        "ur",
        "ent"
      ],
      [
        "Ġpouv",
        "oit"
      ],
      [
        "ĠDi",
        "Ã¨te"
      ],
      [
        "ĠmÃ©",
        "m"
      ],
      [
        "Ġsembl",
        "able"
      ],
      [
        "ĠlÃ©g",
        "i"
      ],
      [
        "Ġrep",
        "os"
      ],
      [
        "met",
        "tre"
      ],
      [
        "con",
        "que"
      ],
      [
        "b",
        "ilitÃ©"
      ],
      [
        "f",
        "i"
      ],
      [
        "Ġ",
        "erreur"
      ],
      [
        "en",
        "n"
      ],
      [
        "qu",
        "ent"
      ],
      [
        "Ġr",
        "ob"
      ],
      [
        "Ġpas",
        "sion"
      ],
      [
        "Ġcom",
        "pr"
      ],
      [
        "ĠS",
        "ans"
      ],
      [
        "ĠP",
        "eu"
      ],
      [
        "Ġex",
        "c"
      ],
      [
        "em",
        "b"
      ],
      [
        "emp",
        "Ãª"
      ],
      [
        "Ġcomp",
        "os"
      ],
      [
        "id",
        "Ã©e"
      ],
      [
        "Ġfac",
        "ultÃ©s"
      ],
      [
        "Ġlang",
        "age"
      ],
      [
        "ĠRom",
        "e"
      ],
      [
        "Ġcorr",
        "omp"
      ],
      [
        "O",
        "N"
      ],
      [
        "g",
        "an"
      ],
      [
        "u",
        "er"
      ],
      [
        "Ġc",
        "ir"
      ],
      [
        "Ġt",
        "andis"
      ],
      [
        "Ġf",
        "ou"
      ],
      [
        "Ġf",
        "illes"
      ],
      [
        "Ġr",
        "ois"
      ],
      [
        "Ġr",
        "are"
      ],
      [
        "Ġdes",
        "tin"
      ],
      [
        "Ġch",
        "ang"
      ],
      [
        "ch",
        "ants"
      ],
      [
        "ci",
        "d"
      ],
      [
        "ĠÃ©t",
        "u"
      ],
      [
        "ĠrÃ©",
        "c"
      ],
      [
        "Ġquoi",
        "que"
      ],
      [
        "Ġcher",
        "che"
      ],
      [
        "Ġcomb",
        "at"
      ],
      [
        "Ġcontra",
        "di"
      ],
      [
        "Ġperd",
        "u"
      ],
      [
        "Ġabs",
        "olu"
      ],
      [
        "Ġtrans",
        "p"
      ],
      [
        "b",
        "e"
      ],
      [
        "o",
        "Ã®t"
      ],
      [
        "r",
        "oi"
      ],
      [
        "s",
        "sent"
      ],
      [
        "s",
        "uite"
      ],
      [
        "v",
        "Ã©s"
      ],
      [
        "Ġd",
        "ir"
      ],
      [
        "Ġl",
        "it"
      ],
      [
        "Ã©",
        "ment"
      ],
      [
        "Ġa",
        "mi"
      ],
      [
        "Ġv",
        "anitÃ©"
      ],
      [
        "Ġles",
        "quels"
      ],
      [
        "Ġpl",
        "aire"
      ],
      [
        "Ġli",
        "eux"
      ],
      [
        "ul",
        "tÃ©"
      ],
      [
        "Ġpro",
        "jet"
      ],
      [
        "Ġar",
        "t"
      ],
      [
        "Ġprop",
        "ri"
      ],
      [
        "Ġas",
        "se"
      ],
      [
        "Ġcomp",
        "te"
      ],
      [
        "use",
        "ment"
      ],
      [
        "Ġvoy",
        "ez"
      ],
      [
        "att",
        "end"
      ],
      [
        "Ġche",
        "f"
      ],
      [
        "rib",
        "un"
      ],
      [
        "Ġass",
        "u"
      ],
      [
        "Ġsensi",
        "bles"
      ],
      [
        "ĠreprÃ©s",
        "ent"
      ],
      [
        "ĠmÃ©th",
        "ode"
      ],
      [
        "c",
        "ons"
      ],
      [
        "Ġ",
        "ordre"
      ],
      [
        "Ġc",
        "al"
      ],
      [
        "Ġm",
        "ul"
      ],
      [
        "ti",
        "en"
      ],
      [
        "Ġdi",
        "x"
      ],
      [
        "Ġdi",
        "ra"
      ],
      [
        "ĠD",
        "es"
      ],
      [
        "Ġaut",
        "oritÃ©"
      ],
      [
        "Ġseul",
        "s"
      ],
      [
        "uc",
        "tions"
      ],
      [
        "Ġaff",
        "aires"
      ],
      [
        "Ġtour",
        "ment"
      ],
      [
        "ĠnÃ©cessaire",
        "ment"
      ],
      [
        "Ġcommen",
        "cer"
      ],
      [
        "Ġdistingu",
        "er"
      ],
      [
        "Ġpai",
        "x"
      ],
      [
        "Ġmou",
        "rir"
      ],
      [
        "Ġtran",
        "qu"
      ],
      [
        "i",
        "ra"
      ],
      [
        "o",
        "rer"
      ],
      [
        "Ġd",
        "oc"
      ],
      [
        "Ġc",
        "rÃ©"
      ],
      [
        "Ġa",
        "t"
      ],
      [
        "Ġf",
        "ri"
      ],
      [
        "Ġle",
        "ct"
      ],
      [
        "in",
        "d"
      ],
      [
        "in",
        "di"
      ],
      [
        "ĠÃ©",
        "v"
      ],
      [
        "les",
        "se"
      ],
      [
        "ĠdÃ©",
        "b"
      ],
      [
        "Ġsa",
        "che"
      ],
      [
        "ĠÃª",
        "tes"
      ],
      [
        "che",
        "ment"
      ],
      [
        "Ġar",
        "ts"
      ],
      [
        "Ġca",
        "uses"
      ],
      [
        "Ġsens",
        "ations"
      ],
      [
        "Ġvoud",
        "rois"
      ],
      [
        "Ġind",
        "Ã©p"
      ],
      [
        "Ġsit",
        "u"
      ],
      [
        "Ġmagistra",
        "ts"
      ],
      [
        "ca",
        "sion"
      ],
      [
        "Ġpie",
        "ds"
      ],
      [
        "Ġincon",
        "vÃ©n"
      ],
      [
        "ĠCom",
        "ment"
      ],
      [
        "c",
        "te"
      ],
      [
        "g",
        "ure"
      ],
      [
        "h",
        "ui"
      ],
      [
        "j",
        "ourd"
      ],
      [
        "o",
        "les"
      ],
      [
        "p",
        "uis"
      ],
      [
        "u",
        "y"
      ],
      [
        "Ġ",
        "1"
      ],
      [
        "Ġs",
        "ain"
      ],
      [
        "Ġm",
        "er"
      ],
      [
        "Ġr",
        "u"
      ],
      [
        "is",
        "me"
      ],
      [
        "Ġvi",
        "ce"
      ],
      [
        "Ġper",
        "f"
      ],
      [
        "cl",
        "us"
      ],
      [
        "Ġlais",
        "s"
      ],
      [
        "ĠmÃ©",
        "tier"
      ],
      [
        "Ġconf",
        "i"
      ],
      [
        "ĠÃ¢",
        "me"
      ],
      [
        "lÃ©",
        "ch"
      ],
      [
        "Ġfr",
        "an"
      ],
      [
        "Ġter",
        "me"
      ],
      [
        "Ġprof",
        "it"
      ],
      [
        "ĠdÃ©t",
        "ail"
      ],
      [
        "Ġsor",
        "tir"
      ],
      [
        "h",
        "ommes"
      ],
      [
        "n",
        "oc"
      ],
      [
        "x",
        "es"
      ],
      [
        "Ġ",
        "ouvrage"
      ],
      [
        "ri",
        "g"
      ],
      [
        "in",
        "f"
      ],
      [
        "Ġr",
        "oy"
      ],
      [
        "Ġtou",
        "cher"
      ],
      [
        "Ġcon",
        "vent"
      ],
      [
        "Ġex",
        "Ã©cu"
      ],
      [
        "uis",
        "ent"
      ],
      [
        "Ġfor",
        "cÃ©"
      ],
      [
        "pr",
        "op"
      ],
      [
        "Ġpro",
        "di"
      ],
      [
        "Ġob",
        "lig"
      ],
      [
        "Ã´t",
        "res"
      ],
      [
        "Ġdonn",
        "ent"
      ],
      [
        "Ġal",
        "ler"
      ],
      [
        "Ġnaturel",
        "lement"
      ],
      [
        "Ġsuff",
        "is"
      ],
      [
        "ĠÃ©tab",
        "lis"
      ],
      [
        "Ġtromp",
        "e"
      ],
      [
        "ĠrÃ¨",
        "gle"
      ],
      [
        "Ġgouvern",
        "eur"
      ],
      [
        "Ġdivers",
        "es"
      ],
      [
        "ocra",
        "tie"
      ],
      [
        "ult",
        "ure"
      ],
      [
        "Ġindivid",
        "u"
      ],
      [
        "exemp",
        "le"
      ],
      [
        "Ġmili",
        "eu"
      ],
      [
        "a",
        "Ã¯"
      ],
      [
        "u",
        "ve"
      ],
      [
        "Ġd",
        "avantage"
      ],
      [
        "Ġs",
        "ouv"
      ],
      [
        "Ġm",
        "ent"
      ],
      [
        "or",
        "m"
      ],
      [
        "Ġr",
        "esse"
      ],
      [
        "au",
        "ra"
      ],
      [
        "Ġg",
        "ui"
      ],
      [
        "ĠÃ©",
        "m"
      ],
      [
        "ci",
        "eux"
      ],
      [
        "ĠP",
        "rin"
      ],
      [
        "av",
        "ez"
      ],
      [
        "Ġcomm",
        "erce"
      ],
      [
        "Ġpremi",
        "Ã¨res"
      ],
      [
        "Ġvoul",
        "u"
      ],
      [
        "imp",
        "orte"
      ],
      [
        "Ġnour",
        "rir"
      ],
      [
        "Ġgar",
        "de"
      ],
      [
        "Ġfour",
        "n"
      ],
      [
        "ĠmÃ©m",
        "oire"
      ],
      [
        "m",
        "ment"
      ],
      [
        "t",
        "eur"
      ],
      [
        "Ã©",
        "re"
      ],
      [
        "re",
        "ur"
      ],
      [
        "oi",
        "sir"
      ],
      [
        "Ġa",
        "per"
      ],
      [
        "Ġn",
        "uit"
      ],
      [
        "ai",
        "me"
      ],
      [
        "ant",
        "Ã©"
      ],
      [
        "Ġen",
        "suite"
      ],
      [
        "at",
        "ri"
      ],
      [
        "Ġch",
        "oisir"
      ],
      [
        "ĠÃ©t",
        "end"
      ],
      [
        "ĠP",
        "lus"
      ],
      [
        "ul",
        "ation"
      ],
      [
        "ve",
        "ment"
      ],
      [
        "Ġcons",
        "titu"
      ],
      [
        "Ġparti",
        "es"
      ],
      [
        "Ġca",
        "mp"
      ],
      [
        "ess",
        "es"
      ],
      [
        "Ġrend",
        "ent"
      ],
      [
        "Ġconf",
        "ond"
      ],
      [
        "Ġtrav",
        "aux"
      ],
      [
        "ĠprÃ©c",
        "isÃ©ment"
      ],
      [
        "Ġnais",
        "sance"
      ],
      [
        "Ġpau",
        "vres"
      ],
      [
        "Ġhonn",
        "Ãªte"
      ],
      [
        "Ġhon",
        "te"
      ],
      [
        "a",
        "ris"
      ],
      [
        "f",
        "ait"
      ],
      [
        "Ġ",
        "z"
      ],
      [
        "Ġp",
        "Ã»t"
      ],
      [
        "Ġs",
        "us"
      ],
      [
        "ent",
        "ion"
      ],
      [
        "Ġv",
        "illes"
      ],
      [
        "te",
        "m"
      ],
      [
        "Ġr",
        "ou"
      ],
      [
        "Ã©t",
        "u"
      ],
      [
        "Ã©t",
        "ude"
      ],
      [
        "ĠE",
        "t"
      ],
      [
        "Ġapp",
        "el"
      ],
      [
        "Ġapp",
        "ris"
      ],
      [
        "cu",
        "r"
      ],
      [
        "Ġar",
        "b"
      ],
      [
        "Ġcomp",
        "arer"
      ],
      [
        "ĠdÃ©p",
        "ens"
      ],
      [
        "Ġal",
        "l"
      ],
      [
        "Ġpers",
        "u"
      ],
      [
        "ĠCe",
        "pendant"
      ],
      [
        "Ġreg",
        "arde"
      ],
      [
        "ĠnÃ©cess",
        "aires"
      ],
      [
        "Ġcour",
        "age"
      ],
      [
        "ĠU",
        "ne"
      ],
      [
        "appr",
        "endre"
      ],
      [
        "Ġmagistra",
        "t"
      ],
      [
        "Ġemb",
        "arras"
      ],
      [
        "ĠdÃ©ter",
        "min"
      ],
      [
        "ĠmÃ©d",
        "ec"
      ],
      [
        "a",
        "ces"
      ],
      [
        "o",
        "te"
      ],
      [
        "Ã©",
        "tÃ©s"
      ],
      [
        "on",
        "ge"
      ],
      [
        "Ġc",
        "ours"
      ],
      [
        "ti",
        "ers"
      ],
      [
        "Ġb",
        "al"
      ],
      [
        "Ġpar",
        "fai"
      ],
      [
        "Ġse",
        "in"
      ],
      [
        "Ġsu",
        "per"
      ],
      [
        "ci",
        "ce"
      ],
      [
        "Ġdi",
        "vis"
      ],
      [
        "Ġcons",
        "cience"
      ],
      [
        "Ġavant",
        "ages"
      ],
      [
        "ali",
        "tÃ©s"
      ],
      [
        "Ġtemp",
        "Ã©ra"
      ],
      [
        "ad",
        "ministration"
      ],
      [
        "Ġpeti",
        "te"
      ],
      [
        "Ġjuge",
        "ments"
      ],
      [
        "Ġsub",
        "st"
      ],
      [
        "Ġti",
        "re"
      ],
      [
        "ĠprÃ©c",
        "au"
      ],
      [
        "ĠprÃ©v",
        "enir"
      ],
      [
        "ĠrÃ©pond",
        "re"
      ],
      [
        "Ġmaint",
        "enant"
      ],
      [
        "ĠgoÃ»",
        "ts"
      ],
      [
        "Ġign",
        "or"
      ],
      [
        "Ġmati",
        "Ã¨re"
      ],
      [
        "b",
        "u"
      ],
      [
        "b",
        "es"
      ],
      [
        "c",
        "re"
      ],
      [
        "g",
        "les"
      ],
      [
        "t",
        "enir"
      ],
      [
        "Ġa",
        "isÃ©"
      ],
      [
        "eu",
        "rer"
      ],
      [
        "ri",
        "er"
      ],
      [
        "Ġb",
        "l"
      ],
      [
        "Ġb",
        "arb"
      ],
      [
        "ĠC",
        "omme"
      ],
      [
        "tes",
        "se"
      ],
      [
        "sent",
        "i"
      ],
      [
        "ĠT",
        "ou"
      ],
      [
        "Ġsou",
        "mis"
      ],
      [
        "Ġdou",
        "ce"
      ],
      [
        "Ġappr",
        "o"
      ],
      [
        "Ġan",
        "n"
      ],
      [
        "Ġpay",
        "er"
      ],
      [
        "ente",
        "ment"
      ],
      [
        "Ġim",
        "m"
      ],
      [
        "osi",
        "tÃ©"
      ],
      [
        "Ġnul",
        "le"
      ],
      [
        "Ġfi",
        "gure"
      ],
      [
        "Ġut",
        "iles"
      ],
      [
        "Ġsuc",
        "ces"
      ],
      [
        "Ġarri",
        "ver"
      ],
      [
        "Ġciv",
        "il"
      ],
      [
        "ĠagrÃ©",
        "able"
      ],
      [
        "imagin",
        "ation"
      ],
      [
        "Ġmu",
        "tu"
      ],
      [
        "Ġasse",
        "mbl"
      ],
      [
        "i",
        "te"
      ],
      [
        "o",
        "ff"
      ],
      [
        "t",
        "ter"
      ],
      [
        "en",
        "v"
      ],
      [
        "Ã©",
        "di"
      ],
      [
        "Ġs",
        "Ã©d"
      ],
      [
        "an",
        "tir"
      ],
      [
        "Ġm",
        "ur"
      ],
      [
        "in",
        "dre"
      ],
      [
        "el",
        "lig"
      ],
      [
        "Ġen",
        "ne"
      ],
      [
        "Ġce",
        "pendant"
      ],
      [
        "Ġpour",
        "ra"
      ],
      [
        "Ġg",
        "Ãª"
      ],
      [
        "ĠdÃ©",
        "si"
      ],
      [
        "ĠP",
        "uis"
      ],
      [
        "ac",
        "le"
      ],
      [
        "Ġgr",
        "Ã¢"
      ],
      [
        "ĠprÃ©",
        "cep"
      ],
      [
        "Ġdev",
        "iennent"
      ],
      [
        "Ġpri",
        "mi"
      ],
      [
        "Ġmis",
        "Ã¨re"
      ],
      [
        "asse",
        "mbl"
      ],
      [
        "par",
        "t"
      ],
      [
        "Ġdemand",
        "er"
      ],
      [
        "Ġinstr",
        "u"
      ],
      [
        "Ġcontra",
        "t"
      ],
      [
        "Ġnouv",
        "eau"
      ],
      [
        "Ġconnais",
        "sances"
      ],
      [
        "Ġsign",
        "es"
      ],
      [
        "Ġfa",
        "us"
      ],
      [
        "Ġplu",
        "part"
      ],
      [
        "Ġfaibles",
        "se"
      ],
      [
        "g",
        "t"
      ],
      [
        "l",
        "les"
      ],
      [
        "es",
        "clav"
      ],
      [
        "Ġs",
        "ource"
      ],
      [
        "Ġs",
        "antÃ©"
      ],
      [
        "ou",
        "dre"
      ],
      [
        "Ġn",
        "ations"
      ],
      [
        "Ġf",
        "id"
      ],
      [
        "ti",
        "t"
      ],
      [
        "is",
        "sance"
      ],
      [
        "Ã¨",
        "de"
      ],
      [
        "Ġpour",
        "vu"
      ],
      [
        "Ġpas",
        "sÃ©"
      ],
      [
        "li",
        "que"
      ],
      [
        "ouv",
        "rir"
      ],
      [
        "Ġh",
        "aut"
      ],
      [
        "Ġfai",
        "ble"
      ],
      [
        "Ġser",
        "oient"
      ],
      [
        "Ġautre",
        "ment"
      ],
      [
        "Ġlib",
        "res"
      ],
      [
        "Ġpart",
        "age"
      ],
      [
        "Ġsupp",
        "orter"
      ],
      [
        "Ġmar",
        "cher"
      ],
      [
        "Ġfais",
        "oit"
      ],
      [
        "Ġjou",
        "ir"
      ],
      [
        "Ġfi",
        "x"
      ],
      [
        "Ġcri",
        "me"
      ],
      [
        "Ġregard",
        "er"
      ],
      [
        "Ġgros",
        "si"
      ],
      [
        "Ġunique",
        "ment"
      ],
      [
        "ĠPeu",
        "p"
      ],
      [
        "Ġpropri",
        "Ã©tÃ©"
      ],
      [
        "Ġperf",
        "ection"
      ],
      [
        "tem",
        "s"
      ],
      [
        "I",
        "T"
      ],
      [
        "c",
        "les"
      ],
      [
        "c",
        "Ã©s"
      ],
      [
        "i",
        "me"
      ],
      [
        "o",
        "que"
      ],
      [
        "p",
        "es"
      ],
      [
        "r",
        "Ã©s"
      ],
      [
        "Ġ",
        "ir"
      ],
      [
        "Ġd",
        "anger"
      ],
      [
        "Ġm",
        "ien"
      ],
      [
        "Ġn",
        "ouve"
      ],
      [
        "Ġt",
        "es"
      ],
      [
        "Ġt",
        "ir"
      ],
      [
        "Ġf",
        "un"
      ],
      [
        "Ġv",
        "aut"
      ],
      [
        "in",
        "Ã©galitÃ©"
      ],
      [
        "is",
        "c"
      ],
      [
        "Ġce",
        "ci"
      ],
      [
        "Ġsu",
        "pr"
      ],
      [
        "Ġav",
        "is"
      ],
      [
        "onn",
        "Ã©"
      ],
      [
        "Ġson",
        "ger"
      ],
      [
        "Ġcon",
        "cevoir"
      ],
      [
        "Ġex",
        "ist"
      ],
      [
        "Ġex",
        "cep"
      ],
      [
        "Ġvi",
        "gueur"
      ],
      [
        "Ġcomp",
        "ter"
      ],
      [
        "Ġsupp",
        "os"
      ],
      [
        "Ġfr",
        "oi"
      ],
      [
        "Ġsui",
        "te"
      ],
      [
        "Ġsec",
        "ret"
      ],
      [
        "tif",
        "s"
      ],
      [
        "Ġaim",
        "able"
      ],
      [
        "ĠÃ©le",
        "vÃ©"
      ],
      [
        "Ġcl",
        "air"
      ],
      [
        "Ġchange",
        "ment"
      ],
      [
        "Ġfl",
        "at"
      ],
      [
        "Ġmaxi",
        "me"
      ],
      [
        "Ġinut",
        "ile"
      ],
      [
        "Ġsyst",
        "Ã¨me"
      ],
      [
        "ĠlÃ©gi",
        "time"
      ],
      [
        "Ġsitu",
        "ation"
      ],
      [
        "Ġnouve",
        "aux"
      ],
      [
        "E",
        "mile"
      ],
      [
        "i",
        "Ã¨res"
      ],
      [
        "p",
        "e"
      ],
      [
        "p",
        "Ã©ri"
      ],
      [
        "Â",
        "ł"
      ],
      [
        "Ġ",
        ","
      ],
      [
        "Ġs",
        "ouverain"
      ],
      [
        "Ġm",
        "ens"
      ],
      [
        "Ġt",
        "ort"
      ],
      [
        "Ġt",
        "Ã¢"
      ],
      [
        "Ġt",
        "ellement"
      ],
      [
        "Ġf",
        "onc"
      ],
      [
        "Ġv",
        "en"
      ],
      [
        "or",
        "de"
      ],
      [
        "est",
        "es"
      ],
      [
        "ra",
        "Ã®"
      ],
      [
        "it",
        "oyens"
      ],
      [
        "ĠdÃ©",
        "cl"
      ],
      [
        "Ġsa",
        "c"
      ],
      [
        "as",
        "sent"
      ],
      [
        "Ġdis",
        "ent"
      ],
      [
        "app",
        "ar"
      ],
      [
        "Ġpe",
        "re"
      ],
      [
        "Ġac",
        "coutu"
      ],
      [
        "Ġman",
        "que"
      ],
      [
        "Ġdou",
        "leur"
      ],
      [
        "gu",
        "es"
      ],
      [
        "Ġcou",
        "rir"
      ],
      [
        "Ġter",
        "mes"
      ],
      [
        "Ġsuc",
        "cÃ¨s"
      ],
      [
        "Ġphilos",
        "ophie"
      ],
      [
        "Ġmouve",
        "ments"
      ],
      [
        "Ġref",
        "us"
      ],
      [
        "lic",
        "ation"
      ],
      [
        "Ġphysi",
        "que"
      ],
      [
        "l",
        "ut"
      ],
      [
        "n",
        "Ã©s"
      ],
      [
        "en",
        "sible"
      ],
      [
        "Ã©",
        "ch"
      ],
      [
        "or",
        "able"
      ],
      [
        "el",
        "l"
      ],
      [
        "Ġj",
        "al"
      ],
      [
        "au",
        "d"
      ],
      [
        "is",
        "se"
      ],
      [
        "ne",
        "mens"
      ],
      [
        "Ġch",
        "ambre"
      ],
      [
        "Ġh",
        "as"
      ],
      [
        "Ġin",
        "vent"
      ],
      [
        "al",
        "ler"
      ],
      [
        "ĠP",
        "aris"
      ],
      [
        "emp",
        "l"
      ],
      [
        "Ġpe",
        "ines"
      ],
      [
        "Ġpuis",
        "qu"
      ],
      [
        "Ġpouv",
        "ant"
      ],
      [
        "Ġvolont",
        "Ã©s"
      ],
      [
        "Ġsupp",
        "ose"
      ],
      [
        "Ġgouver",
        "ner"
      ],
      [
        "Ġsp",
        "ect"
      ],
      [
        "Ġbou",
        "che"
      ],
      [
        "ĠdÃ©tr",
        "uire"
      ],
      [
        "hum",
        "anitÃ©"
      ],
      [
        "Ġcondi",
        "tion"
      ],
      [
        "Ġgl",
        "oire"
      ],
      [
        "Ġexac",
        "tement"
      ],
      [
        "Ġveu",
        "lent"
      ],
      [
        "ĠPrin",
        "ce"
      ],
      [
        "N",
        "E"
      ],
      [
        "h",
        "on"
      ],
      [
        "Ġp",
        "Ã©ri"
      ],
      [
        "Ġc",
        "li"
      ],
      [
        "Ġqu",
        "alitÃ©s"
      ],
      [
        "Ġde",
        "puis"
      ],
      [
        "Ġm",
        "Ã©n"
      ],
      [
        "Ġau",
        "jourd"
      ],
      [
        "ar",
        "es"
      ],
      [
        "Ġdi",
        "ri"
      ],
      [
        "Ġdi",
        "gne"
      ],
      [
        "Ġri",
        "di"
      ],
      [
        "ul",
        "ter"
      ],
      [
        "ĠT",
        "ant"
      ],
      [
        "Ġsimp",
        "licitÃ©"
      ],
      [
        "Ġche",
        "v"
      ],
      [
        "Ġtel",
        "s"
      ],
      [
        "Ġhumain",
        "es"
      ],
      [
        "pi",
        "de"
      ],
      [
        "Ġremp",
        "li"
      ],
      [
        "auc",
        "un"
      ],
      [
        "Ġdange",
        "reux"
      ],
      [
        "Ġtyran",
        "n"
      ],
      [
        "ĠinconvÃ©n",
        "ient"
      ],
      [
        "Ġconfi",
        "ance"
      ],
      [
        "prop",
        "re"
      ],
      [
        "Ġhas",
        "ard"
      ],
      [
        "Ġridi",
        "cu"
      ],
      [
        "i",
        "tion"
      ],
      [
        "m",
        "on"
      ],
      [
        "o",
        "ci"
      ],
      [
        "z",
        "e"
      ],
      [
        "es",
        "time"
      ],
      [
        "Ġl",
        "ux"
      ],
      [
        "ou",
        "ff"
      ],
      [
        "ou",
        "ter"
      ],
      [
        "Ġf",
        "ant"
      ],
      [
        "Ġv",
        "oi"
      ],
      [
        "Ġv",
        "enir"
      ],
      [
        "Ġv",
        "iennent"
      ],
      [
        "Ġb",
        "ois"
      ],
      [
        "Ġb",
        "ut"
      ],
      [
        "Ġpour",
        "voir"
      ],
      [
        "Ġg",
        "Ã¢"
      ],
      [
        "Ã©t",
        "oient"
      ],
      [
        "mi",
        "tÃ©"
      ],
      [
        "Ġex",
        "tr"
      ],
      [
        "Ġma",
        "ch"
      ],
      [
        "Ġdis",
        "s"
      ],
      [
        "app",
        "ro"
      ],
      [
        "ail",
        "le"
      ],
      [
        "Ġpers",
        "onnes"
      ],
      [
        "Ġim",
        "mÃ©di"
      ],
      [
        "Ġmor",
        "al"
      ],
      [
        "Ġrepr",
[...]
