{
  "version": "1.0",
  "truncation": null,
  "padding": null,
  "added_tokens": [
    {
      "id": 0,
      "content": "[UNK]",
      "single_word": false,
      "lstrip": false,
      "rstrip": false,
      "normalized": false,
      "special": true
    }
  ],
  "normalizer": null,
  "pre_tokenizer": {
    "type": "ByteLevel",
    "add_prefix_space": true,
    "trim_offsets": true,
    "use_regex": true
  },
  "post_processor": null,
  "decoder": {
    "type": "ByteLevel",
    "add_prefix_space": true,
    "trim_offsets": true,
    "use_regex": true
  },
  "model": {
    "type": "BPE",
    "dropout": null,
    "unk_token": "[UNK]",
    "continuing_subword_prefix": null,
    "end_of_word_suffix": null,
    "fuse_unk": false,
    "byte_fallback": false,
    "ignore_merges": false,
    "vocab": {
      "[UNK]": 0,
      "!": 1,
      "\"": 2,
      "&": 3,
      "(": 4,
      ")": 5,
      "*": 6,
      ",": 7,
      "-": 8,
      ".": 9,
      "0": 10,
      "1": 11,
      "2": 12,
      "3": 13,
      "4": 14,
      "5": 15,
      "6": 16,
      "7": 17,
      "8": 18,
      "9": 19,
      ":": 20,
      ";": 21,
      "?": 22,
      "A": 23,
      "B": 24,
      "C": 25,
      "D": 26,
      "E": 27,
      "F": 28,
      "G": 29,
      "H": 30,
      "I": 31,
      "J": 32,
      "K": 33,
      "L": 34,
      "M": 35,
      "N": 36,
      "O": 37,
      "P": 38,
      "Q": 39,
      "R": 40,
      "S": 41,
      "T": 42,
      "U": 43,
      "V": 44,
      "W": 45,
      "X": 46,
      "Y": 47,
      "Z": 48,
      "[": 49,
      "]": 50,
      "a": 51,
      "b": 52,
      "c": 53,
      "d": 54,
      "e": 55,
      "f": 56,
      "g": 57,
      "h": 58,
      "i": 59,
      "j": 60,
      "k": 61,
      "l": 62,
      "m": 63,
      "n": 64,
      "o": 65,
      "p": 66,
      "q": 67,
      "r": 68,
      "s": 69,
      "t": 70,
      "u": 71,
      "v": 72,
      "w": 73,
      "x": 74,
      "y": 75,
      "z": 76,
      "¢": 77,
      "§": 78,
      "¨": 79,
      "©": 80,
      "ª": 81,
      "«": 82,
      "®": 83,
      "¯": 84,
      "°": 85,
      "´": 86,
      "¹": 87,
      "»": 88,
      "¼": 89,
      "Â": 90,
      "Ã": 91,
      "Å": 92,
      "â": 93,
      "Ċ": 94,
      "Ġ": 95,
      "Ģ": 96,
      "Ī": 97,
      "ī": 98,
      "Ĭ": 99,
      "ĭ": 100,
      "Ĵ": 101,
      "ĵ": 102,
      "Ļ": 103,
      "ł": 104,
      "Ġd": 105,
      "es": 106,
      "Ġl": 107,
      "en": 108,
      "Ġp": 109,
      "âĢ": 110,
      "âĢĻ": 111,
      "Ã©": 112,
      "on": 113,
      "Ġs": 114,
      "qu": 115,
      "ou": 116,
      "Ġc": 117,
      "re": 118,
      "Ġqu": 119,
      "er": 120,
      "an": 121,
      "oi": 122,
      "Ġde": 123,
      "Ġa": 124,
      "Ġm": 125,
      "Ġn": 126,
      "ai": 127,
      "ent": 128,
      "eu": 129,
      "il": 130,
      "Ġt": 131,
      "Ġf": 132,
      "Ġv": 133,
      "Ġ&": 134,
      "Ġla": 135,
      "le": 136,
      "Ġpa": 137,
      "ĠÃ": 138,
      "ti": 139,
      "un": 140,
      "Ġque": 141,
      "Ġles": 142,
      "Ġle": 143,
      "ri": 144,
      "ĠÃł": 145,
      "our": 146,
      "us": 147,
      "in": 148,
      "om": 149,
      "or": 150,
      "el": 151,
      "est": 152,
      "ant": 153,
      "Ġj": 154,
      "te": 155,
      "me": 156,
      "ais": 157,
      "ui": 158,
      "ans": 159,
      "eur": 160,
      "ous": 161,
      "Ġen": 162,
      "Ġr": 163,
      "ont": 164,
      "Ġdes": 165,
      "Ġne": 166,
      "oit": 167,
      "Ġun": 168,
      "Ġau": 169,
      "ment": 170,
      "Ġb": 171,
      "au": 172,
      "ce": 173,
      "Ġpar": 174,
      "Ġpl": 175,
      "Ġil": 176,
      "Ġqui": 177,
      "is": 178,
      "tre": 179,
      "ons": 180,
      "tÃ©": 181,
      "Ġce": 182,
      "Ãª": 183,
      "Ã¨": 184,
      "Ġpr": 185,
      "Ġpour": 186,
      "ar": 187,
      "Ġpas": 188,
      "Ġg": 189,
      "se": 190,
      "ĠÃ©": 191,
      "ra": 192,
      "Ġplus": 193,
      "Ġtou": 194,
      "si": 195,
      "oin": 196,
      "Ġest": 197,
      "Ġdans": 198,
      "li": 199,
      "Ġse": 200,
      "at": 201,
      "ne": 202,
      "res": 203,
      "end": 204,
      "ouv": 205,
      "elle": 206,
      "Ġch": 207,
      "Ġsu": 208,
      "Ġh": 209,
      "Ġe": 210,
      "ch": 211,
      "les": 212,
      "Ġcom": 213,
      "it": 214,
      "ag": 215,
      "Ġav": 216,
      "ĠdÃ©": 217,
      "ien": 218,
      "mp": 219,
      "Ġleur": 220,
      "tion": 221,
      "Ġdu": 222,
      "os": 223,
      "ois": 224,
      "que": 225,
      "Ġre": 226,
      "Ġfai": 227,
      "pp": 228,
      "Ġje": 229,
      "Ġin": 230,
      "Ġpeu": 231,
      "ab": 232,
      "and": 233,
      "eux": 234,
      "Ġlui": 235,
      "oir": 236,
      "ir": 237,
      "onn": 238,
      "ff": 239,
      "Ġsa": 240,
      "ĠL": 241,
      "Ġtout": 242,
      "mes": 243,
      "ĠC": 244,
      "Ġtr": 245,
      "ens": 246,
      "Ġo": 247,
      "Ġson": 248,
      "al": 249,
      "Ġsi": 250,
      "ec": 251,
      "Ã©s": 252,
      "am": 253,
      "Ġnous": 254,
      "ie": 255,
      "op": 256,
      "ain": 257,
      "ort": 258,
      "Ġune": 259,
      "ci": 260,
      "Ãªme": 261,
      "Ġvous": 262,
      "ure": 263,
      "et": 264,
      "Ġmais": 265,
      "Ġsur": 266,
      "aut": 267,
      "ĠS": 268,
      "Ġdi": 269,
      "de": 270,
      "Ġcon": 271,
      "ĠÃ©t": 272,
      "ge": 273,
      "Ġou": 274,
      "Ġbien": 275,
      "Ġi": 276,
      "Ġsans": 277,
      "Ãł": 278,
      "Ġcet": 279,
      "ol": 280,
      "oint": 281,
      "Ġsont": 282,
      "ers": 283,
      "Ã¨re": 284,
      "ces": 285,
      "Ġhom": 286,
      "Ġpoint": 287,
      "Ã©t": 288,
      "Ġser": 289,
      "Ã®": 290,
      "Ġon": 291,
      "oy": 292,
      "mi": 293,
      "Ġme": 294,
      "Ġri": 295,
      "ours": 296,
      "Ġli": 297,
      "ĠP": 298,
      "Ġex": 299,
      "Ġses": 300,
      "ac": 301,
      "Ġcel": 302,
      "av": 303,
      "roit": 304,
      "ter": 305,
      "ĠrÃ©": 306,
      "ouver": 307,
      "uis": 308,
      "Ġma": 309,
      "ation": 310,
      "Ġces": 311,
      "Ġfait": 312,
      "Ã»": 313,
      "Ġfor": 314,
      "di": 315,
      "ul": 316,
      "ĠI": 317,
      "Ã©e": 318,
      "age": 319,
      "Ġpeut": 320,
      "tions": 321,
      "ĠmÃªme": 322,
      "Ġavec": 323,
      "ance": 324,
      "oins": 325,
      "ve": 326,
      "ils": 327,
      "Ġquel": 328,
      "ĠJ": 329,
      "Ġcons": 330,
      "ĠD": 331,
      "as": 332,
      "Ġdis": 333,
      "Ġaux": 334,
      "tu": 335,
      "ĠÃª": 336,
      "eurs": 337,
      "ĠIl": 338,
      "ĠE": 339,
      "Ġy": 340,
      "Ġfaire": 341,
      "ature": 342,
      "Ġgr": 343,
      "Ġtous": 344,
      "ble": 345,
      "endre": 346,
      "Ġelle": 347,
      "Ġnature": 348,
      "Ġvi": 349,
      "rai": 350,
      "esp": 351,
      "oient": 352,
      "Ġcette": 353,
      "Ã©ri": 354,
      "Ġenf": 355,
      "une": 356,
      "ts": 357,
      "Ã¨s": 358,
      "Ġcomme": 359,
      "ez": 360,
      "ux": 361,
      "Ġaut": 362,
      "ut": 363,
      "ĠÃªtre": 364,
      "Ġmon": 365,
      "rÃ©": 366,
      "ĠM": 367,
      "ence": 368,
      "Ã´": 369,
      "able": 370,
      "Ġcont": 371,
      "ĠA": 372,
      "onne": 373,
      "jours": 374,
      "Ġseu": 375,
      "ile": 376,
      "ĠprÃ©": 377,
      "Ġtoujours": 378,
      "rer": 379,
      "app": 380,
      "Ã¢": 381,
      "Ã©n": 382,
      "em": 383,
      "elles": 384,
      "Ġdev": 385,
      "ue": 386,
      "Ġleurs": 387,
      "ĠQ": 388,
      "Ġrien": 389,
      "Ġfaut": 390,
      "Ġni": 391,
      "Ġgrand": 392,
      "emp": 393,
      "Ġapp": 394,
      "Ġent": 395,
      "Ġmoins": 396,
      "pr": 397,
      "ang": 398,
      "ser": 399,
      "Ġjam": 400,
      "Ġils": 401,
      "tes": 402,
      "Ġpre": 403,
      "cu": 404,
      "Ġet": 405,
      "Ġjamais": 406,
      "Ġpro": 407,
      "che": 408,
      "Ġpri": 409,
      "Ġmo": 410,
      "Ġcomm": 411,
      "Ãªtre": 412,
      "Ã¹": 413,
      "Ġmal": 414,
      "Ġhommes": 415,
      "st": 416,
      "Ġdont": 417,
      "Ã»t": 418,
      "ait": 419,
      "Ġob": 420,
      "ord": 421,
      "omme": 422,
      "Ġpe": 423,
      "gn": 424,
      "mb": 425,
      "Ġpuis": 426,
      "Ã©r": 427,
      "jet": 428,
      "ore": 429,
      "Ġpremi": 430,
      "ĠJe": 431,
      "aire": 432,
      "Ġrais": 433,
      "Ġquand": 434,
      "aux": 435,
      "Ġsent": 436,
      "ur": 437,
      "ler": 438,
      "Ġac": 439,
      "Ã©ra": 440,
      "vent": 441,
      "Ã§": 442,
      "ex": 443,
      "onc": 444,
      "ĠoÃ¹": 445,
      "bli": 446,
      "Ġcr": 447,
      "Ã´t": 448,
      "Ġar": 449,
      "ĠO": 450,
      "Ġdonn": 451,
      "ille": 452,
      "Ġparti": 453,
      "ard": 454,
      "Ġimp": 455,
      "otre": 456,
      "sent": 457,
      "Ġco": 458,
      "Ġprop": 459,
      "cher": 460,
      "Ġhomme": 461,
      "im": 462,
      "Ġas": 463,
      "tin": 464,
      "Ġdoit": 465,
      "aÃ®": 466,
      "ĠT": 467,
      "Ġcar": 468,
      "homme": 469,
      "ond": 470,
      "ants": 471,
      "Ã©g": 472,
      "ient": 473,
      "Ġconn": 474,
      "Ġcelui": 475,
      "ĠQu": 476,
      "cou": 477,
      "um": 478,
      "ussi": 479,
      "core": 480,
      "ver": 481,
      "Ġencore": 482,
      "itÃ©": 483,
      "out": 484,
      "eau": 485,
      "Ġpeup": 486,
      "orte": 487,
      "ist": 488,
      "Ã©es": 489,
      "Ġper": 490,
      "ĠN": 491,
      "ris": 492,
      "Ġsoit": 493,
      "Ġvie": 494,
      "enir": 495,
      "Ġvou": 496,
      "eure": 497,
      "rit": 498,
      "ine": 499,
      "Ġcomp": 500,
      "id": 501,
      "Ã©p": 502,
      "Ġont": 503,
      "Ġcor": 504,
      "Ġautres": 505,
      "Ġautre": 506,
      "Ġca": 507,
      "Ġman": 508,
      "Ġmes": 509,
      "Ġquelque": 510,
      "Ġbon": 511,
      "insi": 512,
      "Ġso": 513,
      "ion": 514,
      "mÃªme": 515,
      "ĠV": 516,
      "Ġdeux": 517,
      "tat": 518,
      "nement": 519,
      "Ġtoutes": 520,
      "Ġcela": 521,
      "Ġjus": 522,
      "Ġju": 523,
      "Ġdiff": 524,
      "vre": 525,
      "ors": 526,
      "Ġlib": 527,
      "autre": 528,
      "Ġmoi": 529,
      "ob": 530,
      "Ġavoir": 531,
      "ps": 532,
      "Ġfem": 533,
      "ques": 534,
      "Ġseul": 535,
      "Ġnos": 536,
      "omp": 537,
      "Ġdonc": 538,
      "ail": 539,
      "Ġaussi": 540,
      "titu": 541,
      "tt": 542,
      "ĠLe": 543,
      "ĠMais": 544,
      "Ġvol": 545,
      "Ġpu": 546,
      "oix": 547,
      "Ġdroit": 548,
      "lement": 549,
      "uit": 550,
      "oph": 551,
      "ĠG": 552,
      "Ġsou": 553,
      "Ġceux": 554,
      "ĠdÃ©p": 555,
      "Ġrest": 556,
      "Ġbes": 557,
      "Ġtoute": 558,
      "Ġpouv": 559,
      "ĠR": 560,
      "voir": 561,
      "Ġdou": 562,
      "ments": 563,
      "Ġdire": 564,
      "cl": 565,
      "ose": 566,
      "Ġdit": 567,
      "Ġjeu": 568,
      "ouve": 569,
      "erre": 570,
      "ĠLa": 571,
      "Ġraison": 572,
      "Ġbeau": 573,
      "Ġsens": 574,
      "tÃ©s": 575,
      "lÃł": 576,
      "Ã©d": 577,
      "ĠLes": 578,
      "Ãªmes": 579,
      "Ġforce": 580,
      "ations": 581,
      "ger": 582,
      "ieux": 583,
      "nes": 584,
      "Ã¨res": 585,
      "oc": 586,
      "sez": 587,
      "Ġnon": 588,
      "Ġver": 589,
      "ill": 590,
      "Ġavant": 591,
      "Ġmain": 592,
      "use": 593,
      "Ġesp": 594,
      "ier": 595,
      "ages": 596,
      "Ġcelle": 597,
      "Ġrapp": 598,
      "ess": 599,
      "Ġcoeur": 600,
      "ables": 601,
      "Ġpeuple": 602,
      "Ġainsi": 603,
      "Ġal": 604,
      "Ġfort": 605,
      "ĠgÃ©n": 606,
      "Ġappr": 607,
      "omb": 608,
      "ĠSi": 609,
      "Ġrend": 610,
      "dre": 611,
      "enf": 612,
      "Ġtra": 613,
      "Ġlais": 614,
      "ĠEn": 615,
      "ĠnÃ©": 616,
      "Ġan": 617,
      "gu": 618,
      "Ġpay": 619,
      "ouvernement": 620,
      "Ġnaturel": 621,
      "mer": 622,
      "ali": 623,
      "rir": 624,
      "Ġentre": 625,
      "Ġvolont": 626,
      "Ġatt": 627,
      "sible": 628,
      "Ã®tre": 629,
      "ĠDi": 630,
      "Ġpers": 631,
      "Ġab": 632,
      "mbl": 633,
      "ĠOn": 634,
      "Ġmieux": 635,
      "ati": 636,
      "Ġdonner": 637,
      "gne": 638,
      "uc": 639,
      "Ġtant": 640,
      "Ġtemp": 641,
      "Ġbesoin": 642,
      "eut": 643,
      "oire": 644,
      "ĠrÃ©p": 645,
      "ad": 646,
      "mile": 647,
      "Ġsoci": 648,
      "prÃ¨s": 649,
      "ori": 650,
      "aine": 651,
      "nent": 652,
      "rÃª": 653,
      "Ġfer": 654,
      "ĠCe": 655,
      "sion": 656,
      "Ġconv": 657,
      "Ġtrop": 658,
      "Ġeux": 659,
      "Ġins": 660,
      "ĠnÃ©ces": 661,
      "Ġcorps": 662,
      "Ġvotre": 663,
      "Ġparce": 664,
      "Ġhum": 665,
      "oses": 666,
      "Ġparticu": 667,
      "bles": 668,
      "Ġparticuli": 669,
      "Ġchoses": 670,
      "iens": 671,
      "aÃ®t": 672,
      "ophie": 673,
      "ante": 674,
      "Ġelles": 675,
      "Ġvoir": 676,
      "Ġeff": 677,
      "Ġpeti": 678,
      "ic": 679,
      "Ġcha": 680,
      "Ġpremier": 681,
      "ĠÃ©l": 682,
      "oyens": 683,
      "Ġvoy": 684,
      "Ġpres": 685,
      "ĠgÃ©nÃ©ra": 686,
      "Ġreg": 687,
      "Ġmet": 688,
      "Ġcou": 689,
      "ĠvÃ©ri": 690,
      "ĠÃ©toit": 691,
      "ĠmÃ©": 692,
      "vers": 693,
      "Ġvoul": 694,
      "Ġsenti": 695,
      "ange": 696,
      "sions": 697,
      "Ġemp": 698,
      "Ġsera": 699,
      "Ġlieu": 700,
      "str": 701,
      "sance": 702,
      "Ġfois": 703,
      "Ġmonde": 704,
      "cer": 705,
      "Ġsau": 706,
      "coup": 707,
      "Ġdonne": 708,
      "Ġseroit": 709,
      "Ġpubli": 710,
      "Ġaff": 711,
      "Ġliber": 712,
      "Ġpart": 713,
      "ĠÃ©g": 714,
      "Ġsupp": 715,
      "ente": 716,
      "Ġrapport": 717,
      "quel": 718,
      "Ġconf": 719,
      "ong": 720,
      "vous": 721,
      "Ġquoi": 722,
      "ins": 723,
      "ner": 724,
      "Ġmont": 725,
      "ĠvolontÃ©": 726,
      "Ġvoit": 727,
      "ĠGouvernement": 728,
      "oli": 729,
      "Ġgu": 730,
      "Ġcher": 731,
      "ale": 732,
      "Ã©tÃ©": 733,
      "Ġmis": 734,
      "aient": 735,
      "Ġobjet": 736,
      "ĠdiffÃ©r": 737,
      "aires": 738,
      "Ġid": 739,
      "Ġbeaucoup": 740,
      "Ġnotre": 741,
      "tement": 742,
      "ĠÃ©tat": 743,
      "Ġim": 744,
      "Ġjuge": 745,
      "Ġpos": 746,
      "Ġauc": 747,
      "Ġreste": 748,
      "quer": 749,
      "Ġdem": 750,
      "Ġvrai": 751,
      "Etat": 752,
      "ĠrÃ©s": 753,
      "ĠdÃ©f": 754,
      "cip": 755,
      "rez": 756,
      "Ġgens": 757,
      "Ġmar": 758,
      "ĠÃ¢": 759,
      "Ġassez": 760,
      "lÃ©": 761,
      "Ġgo": 762,
      "Ġfr": 763,
      "ĠSophie": 764,
      "Ġplais": 765,
      "Ġsavoir": 766,
      "Ġpays": 767,
      "Ġcit": 768,
      "tres": 769,
      "Ġrendre": 770,
      "att": 771,
      "ras": 772,
      "Ġsub": 773,
      "Ġfont": 774,
      "Ġveut": 775,
      "ĠÃ©tÃ©": 776,
      "Ġcontre": 777,
      "Ġsui": 778,
      "Ãªte": 779,
      "ĠPour": 780,
      "ĠlibertÃ©": 781,
      "tÃ©rÃª": 782,
      "Ġtemps": 783,
      "Ġcomment": 784,
      "Ġenfants": 785,
      "Ġprin": 786,
      "tr": 787,
      "tri": 788,
      "Ġsec": 789,
      "Ġad": 790,
      "lig": 791,
      "Ġserv": 792,
      "eureux": 793,
      "ses": 794,
      "oilÃł": 795,
      "Ġtour": 796,
      "Ġyeux": 797,
      "Ġtrav": 798,
      "sant": 799,
      "tif": 800,
      "ions": 801,
      "Ġam": 802,
      "Ġti": 803,
      "Ġph": 804,
      "Ġchose": 805,
      "ĠnÃ©cess": 806,
      "Ġchaque": 807,
      "Ġlong": 808,
      "ouvent": 809,
      "Ġfais": 810,
      "Ġsimp": 811,
      "Ġloi": 812,
      "oser": 813,
      "ĠtrÃ¨s": 814,
      "oyen": 815,
      "min": 816,
      "Ġsous": 817,
      "asse": 818,
      "uire": 819,
      "autres": 820,
      "Ġdevoir": 821,
      "Ġjusqu": 822,
      "Ġcomb": 823,
      "Ġpropre": 824,
      "iÃ¨re": 825,
      "ace": 826,
      "Ġsait": 827,
      "abit": 828,
      "rent": 829,
      "Ġpeine": 830,
      "heur": 831,
      "Ġcour": 832,
      "Ġjou": 833,
      "Ġexp": 834,
      "acun": 835,
      "Ġcer": 836,
      "ĠmaÃ®tre": 837,
      "ĠprÃ©s": 838,
      "per": 839,
      "Ġes": 840,
      "Ġfac": 841,
      "esprit": 842,
      "anger": 843,
      "enfant": 844,
      "aÃ®tre": 845,
      "Ġvois": 846,
      "ordre": 847,
      "Ġfemme": 848,
      "Ġpouvoir": 849,
      "Ġche": 850,
      "Ġag": 851,
      "ude": 852,
      "Ġvos": 853,
      "Ġavoit": 854,
      "Ġinc": 855,
      "istra": 856,
      "alitÃ©": 857,
      "Ġter": 858,
      "raire": 859,
      "mÃ©": 860,
      "Ġus": 861,
      "ances": 862,
      "tÃ©rÃªt": 863,
      "des": 864,
      "vÃ©": 865,
      "Ġfemmes": 866,
      "Ġplaisir": 867,
      "imp": 868,
      "Ġdoi": 869,
      "Ġsen": 870,
      "Ġconser": 871,
      "ĠU": 872,
      "ĠmÃªmes": 873,
      "ents": 874,
      "sement": 875,
      "par": 876,
      "sir": 877,
      "illes": 878,
      "rois": 879,
      "Ġsembl": 880,
      "Ġsuff": 881,
      "Ġmor": 882,
      "Ġjeunes": 883,
      "Ġcommun": 884,
      "Ġloix": 885,
      "endant": 886,
      "ĠpremiÃ¨re": 887,
      "ĠDieu": 888,
      "ĠlÃ©g": 889,
      "Ã©tat": 890,
      "Ġpersonne": 891,
      "Ġnour": 892,
      "tique": 893,
      "Ã¢t": 894,
      "ilitÃ©": 895,
      "Ġtel": 896,
      "Ġchacun": 897,
      "ect": 898,
      "oritÃ©": 899,
      "Ġgouver": 900,
      "Ġchar": 901,
      "Ġtrouve": 902,
      "amour": 903,
      "Ġdemand": 904,
      "ains": 905,
      "osi": 906,
      "Ġloin": 907,
      "isÃ©": 908,
      "Ã¨ve": 909,
      "Ġport": 910,
      "ĠsÃ»": 911,
      "Ġtrouver": 912,
      "Ġenfin": 913,
      "Ġvertu": 914,
      "Ġpresque": 915,
      "cri": 916,
      "Ġci": 917,
      "Ġmort": 918,
      "ches": 919,
      "ĠdÃ©j": 920,
      "ĠdÃ©s": 921,
      "avoir": 922,
      "Ġindi": 923,
      "Ġseulement": 924,
      "tout": 925,
      "Ġpoli": 926,
      "air": 927,
      "Ġenfant": 928,
      "exp": 929,
      "are": 930,
      "quoi": 931,
      "Ġnul": 932,
      "Ġseule": 933,
      "Ġtravail": 934,
      "ĠdÃ©jÃł": 935,
      "ct": 936,
      "ro": 937,
      "vant": 938,
      "Ġjour": 939,
      "Ġsujet": 940,
      "iter": 941,
      "ĠsociÃ©tÃ©": 942,
      "ront": 943,
      "Ġ[": 944,
      "ĠQue": 945,
      "Ġpuisse": 946,
      "ĠQuand": 947,
      "Ġdiffic": 948,
      "Ġjeune": 949,
      "ĠlÃł": 950,
      "Ġnom": 951,
      "Ġfond": 952,
      "ellement": 953,
      "ju": 954,
      "Ġaim": 955,
      "Ġfau": 956,
      "Ġpassions": 957,
      "Ġexemp": 958,
      "ique": 959,
      "Ġai": 960,
      "iles": 961,
      "ĠnÃ©cessaire": 962,
      "mis": 963,
      "Ġterre": 964,
      "ĠCet": 965,
      "Ġbonheur": 966,
      "je": 967,
      "Ġfi": 968,
      "Ġvu": 969,
      "Ġprincip": 970,
      "cep": 971,
      "Ġdistin": 972,
      "Ġmot": 973,
      "Ġeffet": 974,
      "Ġpens": 975,
      "agin": 976,
      "Ġrec": 977,
      "Ġinstr": 978,
      "ĠprÃ©c": 979,
      "ems": 980,
      "lis": 981,
      "Ġut": 982,
      "Ġtems": 983,
      "Ġgar": 984,
      "Ġtu": 985,
      "Ġrem": 986,
      "Ġautant": 987,
      "fin": 988,
      "Ġbonne": 989,
      "lir": 990,
      "ĠEmile": 991,
      "chant": 992,
      "iennent": 993,
      "Ġgrande": 994,
      "Ġvoud": 995,
      "mÃªmes": 996,
      "Ġsais": 997,
      "Ġbr": 998,
      "ction": 999,
      "Ġsort": 1000,
      "Ġresp": 1001,
      "Ġsouff": 1002,
      "Ġ[*": 1003,
      "ĠaprÃ¨s": 1004,
      "tis": 1005,
      "Ġpen": 1006,
      "Ã©l": 1007,
      "Ġdisp": 1008,
      "Ġcontraire": 1009,
      "Ġprod": 1010,
      "ĠF": 1011,
      "Ġmom": 1012,
      "Ġnomb": 1013,
      "ĠDans": 1014,
      "titution": 1015,
      "Ã©toit": 1016,
      "if": 1017,
      "yant": 1018,
      "Ġsouvent": 1019,
      "ĠÃī": 1020,
      "Ġret": 1021,
      "Ġcontra": 1022,
      "auv": 1023,
      "ĠeÃ»t": 1024,
      "ĠgoÃ»t": 1025,
      "Ġfut": 1026,
      "Ġenfans": 1027,
      "Ġdoivent": 1028,
      "mens": 1029,
      "Ġprendre": 1030,
      "Ġrepr": 1031,
      "ass": 1032,
      "Ġalors": 1033,
      "ges": 1034,
      "ĠÃ©le": 1035,
      "ĠÃ©tab": 1036,
      "Ġcelles": 1037,
      "Ġsel": 1038,
      "Ġcri": 1039,
      "ern": 1040,
      "Ġprend": 1041,
      "rant": 1042,
      "ĠdÃ©li": 1043,
      "ves": 1044,
      "Ã©qu": 1045,
      "Ġhumain": 1046,
      "fois": 1047,
      "vres": 1048,
      "Ġfin": 1049,
      "Ġpeuvent": 1050,
      "Ġpi": 1051,
      "Ġait": 1052,
      "rib": 1053,
      "int": 1054,
      "Ġind": 1055,
      "Ġperd": 1056,
      "mble": 1057,
      "ĠÃ©tant": 1058,
      "Ã©tend": 1059,
      "Ġsentir": 1060,
      "Ġsentiment": 1061,
      "Ġaucun": 1062,
      "Ġcitoyens": 1063,
      "cien": 1064,
      "lle": 1065,
      "ilos": 1066,
      "Ġtromp": 1067,
      "Ġvient": 1068,
      "ĠprÃ©v": 1069,
      "Ġmoment": 1070,
      "tant": 1071,
      "tir": 1072,
      "Ġici": 1073,
      "ucation": 1074,
      "ĠidÃ©es": 1075,
      "Ġnombre": 1076,
      "xi": 1077,
      "Ġcl": 1078,
      "Ġnouv": 1079,
      "Ġtrouv": 1080,
      "Ġmemb": 1081,
      "ĠDe": 1082,
      "Ġass": 1083,
      "Ġsuis": 1084,
      "Ġgrands": 1085,
      "pi": 1086,
      "Ġsorte": 1087,
      "ĠmÃ¨re": 1088,
      "Ġchange": 1089,
      "ran": 1090,
      "Ġremp": 1091,
      ".]": 1092,
      "Ġsien": 1093,
      "oign": 1094,
      "Ġren": 1095,
      "eff": 1096,
      "Ġlois": 1097,
      "era": 1098,
      "olu": 1099,
      "serv": 1100,
      "Ġselon": 1101,
      "uite": 1102,
      "Ġvivre": 1103,
      "Ġmoeurs": 1104,
      "Ġpeuples": 1105,
      "ĠmaniÃ¨re": 1106,
      "bre": 1107,
      "Ġconsid": 1108,
      "Ġcommen": 1109,
      "time": 1110,
      "vid": 1111,
      "Ġcond": 1112,
      "ĠrÃ©f": 1113,
      "ĠÃ¢ge": 1114,
      "Ġforme": 1115,
      "gent": 1116,
      "Ġans": 1117,
      "enant": 1118,
      "Ġnais": 1119,
      "ulti": 1120,
      "ĠVous": 1121,
      "Ã©m": 1122,
      "Ġpasser": 1123,
      "Ġcesse": 1124,
      "Ġprof": 1125,
      "ĠUn": 1126,
      "Ġparler": 1127,
      "Ã¨ce": 1128,
      "Ġrep": 1129,
      "Ġcert": 1130,
      "Ġlang": 1131,
      "ili": 1132,
      "ĠB": 1133,
      "Ġmag": 1134,
      "Ġmoyen": 1135,
      "ĠfÃ»t": 1136,
      "Ġchez": 1137,
      "Ġheureux": 1138,
      "Ġoc": 1139,
      "ientÃ´t": 1140,
      "sÃ©": 1141,
      "oie": 1142,
      "Ġ&,": 1143,
      "Ġsuc": 1144,
      "ĠdÃ©sir": 1145,
      "abord": 1146,
      "Ġquelques": 1147,
      "ĠNous": 1148,
      "Ġobjets": 1149,
      "art": 1150,
      "Ġrel": 1151,
      "Ġcontin": 1152,
      "Ġdisc": 1153,
      "Ġcrain": 1154,
      "ds": 1155,
      "Ġcas": 1156,
      "Ġplace": 1157,
      "ĠdÃ©pend": 1158,
      "Ġphilos": 1159,
      "Ġsoin": 1160,
      "Ġvain": 1161,
      "Ġpau": 1162,
      "rage": 1163,
      "ouverain": 1164,
      "Ġacc": 1165,
      "Ġregard": 1166,
      "tte": 1167,
      "Ġques": 1168,
      "ĠmÃ©ri": 1169,
      "Ġfl": 1170,
      "ĠprÃ©ju": 1171,
      "avant": 1172,
      "Ġanim": 1173,
      "fs": 1174,
      "Ġhonn": 1175,
      "Ġrev": 1176,
      "ĠCh": 1177,
      "Ġprix": 1178,
      "ĠvÃ©rit": 1179,
      "Ġfoi": 1180,
      "Ġfam": 1181,
      "temp": 1182,
      "iere": 1183,
      "ĠRom": 1184,
      "ĠgÃ©nÃ©rale": 1185,
      "ommes": 1186,
      "..": 1187,
      "gue": 1188,
      "Ġporte": 1189,
      "Ġmouve": 1190,
      "Ġvoix": 1191,
      "Ġhabit": 1192,
      "autoritÃ©": 1193,
      "Ġmod": 1194,
      "trie": 1195,
      "Ġeu": 1196,
      "Ġsoins": 1197,
      "ĠrÃ¨": 1198,
      "appr": 1199,
      "Ġlibre": 1200,
      "Ġesprit": 1201,
      "Ġmauv": 1202,
      "Ġton": 1203,
      "ĠdÃ©v": 1204,
      "Ã§ons": 1205,
      "ĠrÃ©pond": 1206,
      "Ġmembres": 1207,
      "ĠH": 1208,
      "ĠbientÃ´t": 1209,
      "ĠAu": 1210,
      "Ġimport": 1211,
      "opp": 1212,
      "xe": 1213,
      "ĠÃ©p": 1214,
      "Ġinf": 1215,
      "ĠconsÃ©qu": 1216,
      "Ġabs": 1217,
      "ĠÃ©lÃ¨ve": 1218,
      "isÃ©ment": 1219,
      "ĠCette": 1220,
      "lent": 1221,
      "euse": 1222,
      "lez": 1223,
      "Ġparmi": 1224,
      "Ġmeill": 1225,
      "ĠPar": 1226,
      "Ġquelle": 1227,
      "Ġcap": 1228,
      "ĠVoilÃł": 1229,
      "gr": 1230,
      "ĠÃ´": 1231,
      "Ġarri": 1232,
      "Ġpetit": 1233,
      "uri": 1234,
      "ences": 1235,
      "Ã©rer": 1236,
      "acc": 1237,
      "Ġmari": 1238,
      "Ġmettre": 1239,
      "Ġbor": 1240,
      "Ġsurtout": 1241,
      "Ġdevoirs": 1242,
      "aff": 1243,
      "Ġ\"": 1244,
      "ĠpÃ¨re": 1245,
      "Ġsoient": 1246,
      "Ġfra": 1247,
      "els": 1248,
      "Ġaura": 1249,
      "tÃ©e": 1250,
      "Ġpuissance": 1251,
      "Ġmesure": 1252,
      "oyez": 1253,
      "ĠprÃ©f": 1254,
      "Ġmains": 1255,
      "ĠvÃ©ritable": 1256,
      "Ġmauvais": 1257,
      "grÃ©": 1258,
      "ign": 1259,
      "ues": 1260,
      "Ãī": 1261,
      "Ġcent": 1262,
      "Ãªtes": 1263,
      "Ġhon": 1264,
      "Ġop": 1265,
      "Ġmaxi": 1266,
      "ĠElle": 1267,
      "Ġpremiers": 1268,
      "Ġcoup": 1269,
      "ĠvÃ©ritÃ©": 1270,
      "Ġpublique": 1271,
      "Ã©cu": 1272,
      "Ġsit": 1273,
      "Ġpourquoi": 1274,
      "ĠCor": 1275,
      "ĠÃ©tr": 1276,
      "Ã®t": 1277,
      "Ġconnais": 1278,
      "Ġcause": 1279,
      "dess": 1280,
      "ubli": 1281,
      "Ġmalh": 1282,
      "Ġjuger": 1283,
      "clav": 1284,
      "Ġlaisser": 1285,
      "Ġor": 1286,
      "oute": 1287,
      "entend": 1288,
      "Ã¨te": 1289,
      "Ġgra": 1290,
      "ĠdÃ©t": 1291,
      "Ġappar": 1292,
      "gÃ©s": 1293,
      "Ġsages": 1294,
      "Ġveux": 1295,
      "ĠdÃ©c": 1296,
      "ĠintÃ©rÃªt": 1297,
      "Ġpartie": 1298,
      "Ġchercher": 1299,
      "ĠprÃ©sent": 1300,
      "Ġpor": 1301,
      "ĠPol": 1302,
      "Ġimpos": 1303,
      "arer": 1304,
      "Ġdern": 1305,
      "Ġno": 1306,
      "Ã¨me": 1307,
      "Ġtrou": 1308,
      "Ġexer": 1309,
      "Ġpris": 1310,
      "Ġquelquefois": 1311,
      "ĠsÃ»r": 1312,
      "Ġlaqu": 1313,
      "tive": 1314,
      "antes": 1315,
      "ĠrÃ©g": 1316,
      "rait": 1317,
      "Ġcrois": 1318,
      "Ġcombien": 1319,
      "Ġexemple": 1320,
      "oÃ®tre": 1321,
      "vis": 1322,
      "esse": 1323,
      "enu": 1324,
      "Ġnation": 1325,
      "tice": 1326,
      "Ġgouvern": 1327,
      "lus": 1328,
      "rais": 1329,
      "Ġsp": 1330,
      "user": 1331,
      "omm": 1332,
      "ise": 1333,
      "onnes": 1334,
      "ĠAinsi": 1335,
      "Ġmagistra": 1336,
      "ĠCorps": 1337,
      "ari": 1338,
      "honn": 1339,
      "Ġord": 1340,
      "Ġmille": 1341,
      "ouvrage": 1342,
      "Ã©nat": 1343,
      "cup": 1344,
      "Ġapprendre": 1345,
      "Ġnaturelle": 1346,
      "Ġsubs": 1347,
      "oisi": 1348,
      "ĠmÃ©p": 1349,
      "Ġlequel": 1350,
      "iste": 1351,
      "chÃ©": 1352,
      "Ġentend": 1353,
      "Ġhumaine": 1354,
      "Ġvouloir": 1355,
      "yst": 1356,
      "Ã©rÃ©": 1357,
      "Ġmaux": 1358,
      "Ġplut": 1359,
      "ager": 1360,
      "Ġtrai": 1361,
      "ici": 1362,
      "Ã©v": 1363,
      "Ġsoi": 1364,
      "Ġfal": 1365,
      "Ġconstitution": 1366,
      "Ġrapports": 1367,
      "Ġciv": 1368,
      "ĠplutÃ´t": 1369,
      "ales": 1370,
      "entes": 1371,
      "Ġfav": 1372,
      "tiÃ©": 1373,
      "Ġacqu": 1374,
      "Ġpossible": 1375,
      "cÃ©": 1376,
      "anitÃ©": 1377,
      "ĠvoilÃł": 1378,
      "uses": 1379,
      "ister": 1380,
      "ats": 1381,
      "ĠNon": 1382,
      "Ġaucune": 1383,
      "Ġreconn": 1384,
      "ap": 1385,
      "leurs": 1386,
      "tie": 1387,
      "tient": 1388,
      "instr": 1389,
      "Ġchoix": 1390,
      "onner": 1391,
      "Ã®tres": 1392,
      "Ġcommence": 1393,
      "Ġdroits": 1394,
      "ire": 1395,
      "Ã©c": 1396,
      "onde": 1397,
      "Ġsage": 1398,
      "Ġgen": 1399,
      "Ġjugement": 1400,
      "enez": 1401,
      "Ġref": 1402,
      "Ġrelig": 1403,
      "ĠmaÃ®tres": 1404,
      "Ġmots": 1405,
      "Ġbesoins": 1406,
      "ĠRÃ©p": 1407,
      "Ġsensible": 1408,
      "gment": 1409,
      "Ġtomb": 1410,
      "ĠtÃªte": 1411,
      "issent": 1412,
      "ĠÃ©c": 1413,
      "agne": 1414,
      "ĠNe": 1415,
      "Ġjours": 1416,
      "met": 1417,
      "cevoir": 1418,
      "Ġsav": 1419,
      "Ã©rience": 1420,
      "Ġmaint": 1421,
      "Ġparticulier": 1422,
      "Ġfaud": 1423,
      "Ġlaquelle": 1424,
      "Ġlu": 1425,
      "reux": 1426,
      "isl": 1427,
      "ection": 1428,
      "Ã©rir": 1429,
      "ĠTout": 1430,
      "Ġempl": 1431,
      "Ġquestion": 1432,
      "dessus": 1433,
      "ĠRÃ©publi": 1434,
      "ieurs": 1435,
      "pendant": 1436,
      "Ġress": 1437,
      "Ġprom": 1438,
      "sitÃ©": 1439,
      "ĠdÃ©g": 1440,
      "Ġattent": 1441,
      "ĠidÃ©e": 1442,
      "Ġservir": 1443,
      "Ġsimple": 1444,
      "Ġdifficile": 1445,
      "Ġcontinu": 1446,
      "eil": 1447,
      "gle": 1448,
      "Ġmoyens": 1449,
      "Ġte": 1450,
      "ĠreÃ§": 1451,
      "Ġdoute": 1452,
      "Ġutile": 1453,
      "gÃ©": 1454,
      "entre": 1455,
      "Ġtient": 1456,
      "Ġbou": 1457,
      "resse": 1458,
      "Ġtrans": 1459,
      "citÃ©": 1460,
      "Ġseront": 1461,
      "ĠIls": 1462,
      "Ġpetits": 1463,
      "este": 1464,
      "Ġroi": 1465,
      "iss": 1466,
      "raient": 1467,
      "stant": 1468,
      "Ġparticuliers": 1469,
      "Ġsensi": 1470,
      "up": 1471,
      "enne": 1472,
      "iner": 1473,
      "tez": 1474,
      "ĠdÃ©tr": 1475,
      "Ġconc": 1476,
      "ultÃ©s": 1477,
      "Ã¢me": 1478,
      "Ġdevient": 1479,
      "Ġlaisse": 1480,
      "Ġatta": 1481,
      "Ġdistingu": 1482,
      "hum": 1483,
      "ourd": 1484,
      "tÃ©ri": 1485,
      "ĠprÃ©tend": 1486,
      "Ġplusieurs": 1487,
      "Ġinter": 1488,
      "Ġimporte": 1489,
      "Ġpolitique": 1490,
      "ca": 1491,
      "rui": 1492,
      "Ġcroit": 1493,
      "Ġvis": 1494,
      "Ġpatrie": 1495,
      "Ã©galitÃ©": 1496,
      "temps": 1497,
      "Ġsin": 1498,
      "qui": 1499,
      "ĠmÃ©t": 1500,
      "usage": 1501,
      "Ġsemble": 1502,
      "Ġhors": 1503,
      "Ġdivers": 1504,
      "Ġbiens": 1505,
      "Ġcroire": 1506,
      "erreur": 1507,
      "Ġtirer": 1508,
      "Ġsemblables": 1509,
      "Ġremar": 1510,
      "Ġfille": 1511,
      "Ġparle": 1512,
      "agit": 1513,
      "Ġriches": 1514,
      "Ã©ration": 1515,
      "ĠconnaÃ®tre": 1516,
      "ĠdiffÃ©rence": 1517,
      "Ġimagin": 1518,
      "ĠÃīmile": 1519,
      "habit": 1520,
      "Ã¯": 1521,
      "Ġtal": 1522,
      "oindre": 1523,
      "Ġsign": 1524,
      "Ġconnois": 1525,
      "quels": 1526,
      "Ġporter": 1527,
      "Ġphilosoph": 1528,
      "Ġfrapp": 1529,
      "alement": 1530,
      "ot": 1531,
      "rain": 1532,
      "ense": 1533,
      "ret": 1534,
      "intÃ©rÃªt": 1535,
      "Ġheure": 1536,
      "chent": 1537,
      "ĠSouverain": 1538,
      "ĠOr": 1539,
      "ĠprÃ©jugÃ©s": 1540,
      "og": 1541,
      "ode": 1542,
      "inion": 1543,
      "Ġforces": 1544,
      "Ġpublic": 1545,
      "Ġconserver": 1546,
      "Ġdiscours": 1547,
      "lex": 1548,
      "Ġavez": 1549,
      "ĠCes": 1550,
      "ĠÃ©toient": 1551,
      "coutu": 1552,
      "Ã©ducation": 1553,
      "ĠespÃ¨ce": 1554,
      "Ġplaisirs": 1555,
      "Ġfamille": 1556,
      "Ġreligion": 1557,
      "ies": 1558,
      "lu": 1559,
      "Ġpie": 1560,
      "Ġavons": 1561,
      "Ġcru": 1562,
      "ocra": 1563,
      "Ġapprend": 1564,
      "ĠgoÃ»": 1565,
      "ĠmÃ©rite": 1566,
      "nÃ©": 1567,
      "ole": 1568,
      "Ġfa": 1569,
      "Ġauroit": 1570,
      "Ġplu": 1571,
      "Ġpropor": 1572,
      "Ġsentiments": 1573,
      "ible": 1574,
      "Ġcol": 1575,
      "elopp": 1576,
      "Ġplain": 1577,
      "Ġgouvernement": 1578,
      "ĠdÃ©m": 1579,
      "Ġrecher": 1580,
      "avoit": 1581,
      "Ġfaits": 1582,
      "ult": 1583,
      "Ã¢ge": 1584,
      "Ġjuste": 1585,
      "ĠgÃ©nÃ©ral": 1586,
      "ĠagrÃ©": 1587,
      "osition": 1588,
      ".\"": 1589,
      "cÃ¨s": 1590,
      "roient": 1591,
      "ysi": 1592,
      "ĠcÃ´": 1593,
      "Ġtard": 1594,
      "Ġfit": 1595,
      "Ġvers": 1596,
      "vez": 1597,
      "ĠQuel": 1598,
      "Ã©par": 1599,
      "Ġsujets": 1600,
      "Ġmouvement": 1601,
      "vin": 1602,
      "Ġsor": 1603,
      "ĠprÃª": 1604,
      "ĠÃ©d": 1605,
      "Ġsexe": 1606,
      "Ġemb": 1607,
      "Ġinut": 1608,
      "Ġtrois": 1609,
      "Ġoff": 1610,
      "avois": 1611,
      "dire": 1612,
      "Ġraisons": 1613,
      "ĠconnoÃ®tre": 1614,
      "Ġjustice": 1615,
      "objet": 1616,
      "titude": 1617,
      "Ġmontrer": 1618,
      "ĠguÃ¨re": 1619,
      "ĠlÃ©gisl": 1620,
      "Ġdemande": 1621,
      "cience": 1622,
      "eÃ»t": 1623,
      "ivers": 1624,
      "vi": 1625,
      "vation": 1626,
      "ennent": 1627,
      "Ã©le": 1628,
      "Ġta": 1629,
      "Ġlongtemps": 1630,
      "Ġpenser": 1631,
      "avantage": 1632,
      "ĠRÃ©publique": 1633,
      "cle": 1634,
      "ciens": 1635,
      "od": 1636,
      "ĠparaÃ®t": 1637,
      "Ġpourtant": 1638,
      "Ġign": 1639,
      "Ġprogr": 1640,
      "ĠmalgrÃ©": 1641,
      "Ġcorr": 1642,
      "Ġmontre": 1643,
      "ĠprogrÃ¨s": 1644,
      "fai": 1645,
      "sances": 1646,
      "tus": 1647,
      "Ġtend": 1648,
      "tier": 1649,
      "ines": 1650,
      "Ġbras": 1651,
      "arras": 1652,
      "ĠCel": 1653,
      "Ã©tab": 1654,
      "Ġviol": 1655,
      "ĠAl": 1656,
      "Ġcarac": 1657,
      "Ġpauvre": 1658,
      ".*": 1659,
      "nÃ©e": 1660,
      "Ġdom": 1661,
      "erce": 1662,
      "ĠnÃ©g": 1663,
      "Ġfils": 1664,
      "Ġva": 1665,
      "lic": 1666,
      "Ġlivre": 1667,
      "Ġform": 1668,
      "Ġgros": 1669,
      "ĠobÃ©": 1670,
      "Ġanimaux": 1671,
      "ĠdÃ©velopp": 1672,
      "Ġgenre": 1673,
      "ece": 1674,
      "Ġsang": 1675,
      "Ġpare": 1676,
      "orme": 1677,
      "ĠprÃ¨s": 1678,
      "arde": 1679,
      "imagin": 1680,
      "ĠempÃª": 1681,
      "ministra": 1682,
      "Ġjeunesse": 1683,
      "Ġtoi": 1684,
      "Ġville": 1685,
      "litÃ©": 1686,
      "autant": 1687,
      "ĠSÃ©nat": 1688,
      "Ġcondi": 1689,
      "Ġsert": 1690,
      "Ġfaites": 1691,
      "Ġgrandes": 1692,
      "Ġcitoyen": 1693,
      "atta": 1694,
      "Ġsuivre": 1695,
      "Ġrespec": 1696,
      "Ġproduit": 1697,
      "honneur": 1698,
      "ĠpÃ©n": 1699,
      "Ġty": 1700,
      "ĠleÃ§ons": 1701,
      "ource": 1702,
      "Ġuns": 1703,
      "argent": 1704,
      "ĠdÃ©d": 1705,
      "Ġint": 1706,
      "Ġdevant": 1707,
      "Ġobserv": 1708,
      "Ġrester": 1709,
      "Ġoccup": 1710,
      "ĠdÃ¨s": 1711,
      "Ġaj": 1712,
      "Ġmu": 1713,
      "Ġtent": 1714,
      "Ã¨le": 1715,
      "Ġpasse": 1716,
      "Ġriche": 1717,
      "ĠEtat": 1718,
      "Ġvertus": 1719,
      "ĠnÃ©cessitÃ©": 1720,
      "Ġproportion": 1721,
      "tÃ´t": 1722,
      "auc": 1723,
      "Ġpass": 1724,
      "Ġchanger": 1725,
      "andis": 1726,
      "Ġcommune": 1727,
      "Ġcoeurs": 1728,
      "Ġpropres": 1729,
      "ĠconnaÃ®t": 1730,
      "Ġfera": 1731,
      "Ġconven": 1732,
      "Ġsuffit": 1733,
      "Ġmorale": 1734,
      "Ġfaute": 1735,
      "Ġprincipe": 1736,
      "aprÃ¨s": 1737,
      "Ġsol": 1738,
      "Ġmoindre": 1739,
      "Ġfour": 1740,
      "Ġpourroit": 1741,
      "ĠdÃ©ter": 1742,
      "Ġopp": 1743,
      "ulte": 1744,
      "Ġcontent": 1745,
      "Ã¢che": 1746,
      "Ġguerre": 1747,
      "Ġusage": 1748,
      "ĠdÃ©sirs": 1749,
      "ayant": 1750,
      "con": 1751,
      "Ġpun": 1752,
      "Ġpeur": 1753,
      "Ġsyst": 1754,
      "ĠaisÃ©ment": 1755,
      "euses": 1756,
      "Ġeng": 1757,
      "Ġra": 1758,
      "ĠÃ©cl": 1759,
      "Ã©tois": 1760,
      "Ġvices": 1761,
      "Ġraisonne": 1762,
      "istance": 1763,
      "istoire": 1764,
      "mÃ©di": 1765,
      "Ġaime": 1766,
      "Ġpense": 1767,
      "Ġretour": 1768,
      "ĠreprÃ©s": 1769,
      "ĠconsÃ©quent": 1770,
      "Ġmeilleur": 1771,
      "Ġmaximes": 1772,
      "ĠportÃ©e": 1773,
      "Ġsommes": 1774,
      "Ġtenir": 1775,
      "Ġfasse": 1776,
      "Ġparv": 1777,
      "Ġprati": 1778,
      "ĠÃ©ch": 1779,
      "opinion": 1780,
      "orter": 1781,
      "Ġlivres": 1782,
      "ĠrÃ©un": 1783,
      "Ã§on": 1784,
      "ĠÃ©galement": 1785,
      "Ġcertain": 1786,
      "ĠPolo": 1787,
      "Ġlumi": 1788,
      "iend": 1789,
      "lais": 1790,
      "ud": 1791,
      "val": 1792,
      "Ġayant": 1793,
      "Ġvue": 1794,
      "Ã¨ne": 1795,
      "Ġgl": 1796,
      "ienne": 1797,
      "iez": 1798,
      "Ġoubli": 1799,
      "Ġexam": 1800,
      "Ġformer": 1801,
      "ĠdonnÃ©": 1802,
      "Ġconvient": 1803,
      "Ġinstitu": 1804,
      "Ġpartout": 1805,
      "Ġindivid": 1806,
      "Ġprincipes": 1807,
      "Ġimpossible": 1808,
      "ĠcÃ´tÃ©": 1809,
      "ĠPologne": 1810,
      "enoit": 1811,
      "Ġvin": 1812,
      "tiques": 1813,
      "Ġense": 1814,
      "Ġfaibles": 1815,
      "Ġexac": 1816,
      "ĠEnfin": 1817,
      "ative": 1818,
      "ĠÃ©gard": 1819,
      "ĠsÃ»re": 1820,
      "Ġaimer": 1821,
      "ĠÃ©tabli": 1822,
      "Ġmalheureux": 1823,
      "nous": 1824,
      "Ġculti": 1825,
      "aimer": 1826,
      "Ġtelle": 1827,
      "ĠtÃ©m": 1828,
      "Ġvit": 1829,
      "Ġrang": 1830,
      "Ġbout": 1831,
      "ĠplaÃ®t": 1832,
      "arb": 1833,
      "Ġgag": 1834,
      "Ġmaison": 1835,
      "Ġsauv": 1836,
      "Ġservi": 1837,
      "Ġfacile": 1838,
      "Ġchefs": 1839,
      "effet": 1840,
      "ctions": 1841,
      "dit": 1842,
      "leur": 1843,
      "rÃ©e": 1844,
      "Ġafin": 1845,
      "Ġtris": 1846,
      "Ġfus": 1847,
      "Ġvrais": 1848,
      "rin": 1849,
      "uits": 1850,
      "Ġunique": 1851,
      "Ġliv": 1852,
      "Ġentendre": 1853,
      "Ġsocial": 1854,
      "Ġsecond": 1855,
      "Ġesclav": 1856,
      "Ġnourri": 1857,
      "expÃ©rience": 1858,
      "Ġrespect": 1859,
      "ministration": 1860,
      "ere": 1861,
      "ures": 1862,
      "ĠmÃ©d": 1863,
      "ĠtÃ´t": 1864,
      "Ġenv": 1865,
      "Ġaugment": 1866,
      "Ġdurant": 1867,
      "urer": 1868,
      "ditÃ©": 1869,
      "Ġviv": 1870,
      "Ã´tre": 1871,
      "Ġdevenir": 1872,
      "Ġpropos": 1873,
      "Ġsoli": 1874,
      "gueur": 1875,
      "ĠparticuliÃ¨re": 1876,
      "Ġincon": 1877,
      "Ġremplir": 1878,
      "vu": 1879,
      "Ġsouver": 1880,
      "Ġmulti": 1881,
      "Ã¨rent": 1882,
      "ateur": 1883,
      "irent": 1884,
      "amment": 1885,
      "oyer": 1886,
      "Ã©rence": 1887,
      "Ã©rations": 1888,
      "Ã§oit": 1889,
      "ĠÃ©loign": 1890,
      "Ġsauroit": 1891,
      "Ġphysi": 1892,
      "Ġfaisant": 1893,
      "Ġsouffrir": 1894,
      "Ġfaudroit": 1895,
      "habitude": 1896,
      "Ġmultip": 1897,
      "oÃ¹": 1898,
      "Ġdange": 1899,
      "Ġple": 1900,
      "Ġsuit": 1901,
      "oux": 1902,
      "anti": 1903,
      "Ġveu": 1904,
      "Ġdoux": 1905,
      "ĠrÃ©flex": 1906,
      "Ãītat": 1907,
      "Ġsagesse": 1908,
      "ement": 1909,
      "lant": 1910,
      "tent": 1911,
      "tra": 1912,
      "Ġcuri": 1913,
      "Ġair": 1914,
      "iller": 1915,
      "uste": 1916,
      "liquer": 1917,
      "ambre": 1918,
      "Ġsurp": 1919,
      "autrui": 1920,
      "avec": 1921,
      "Ġmati": 1922,
      "Ġcontrain": 1923,
      "ĠQui": 1924,
      "Ġpuisque": 1925,
      "urop": 1926,
      "Ġactions": 1927,
      "Ã©rable": 1928,
      "Ġattend": 1929,
      "ĠPourquoi": 1930,
      "vÃ©n": 1931,
      "enus": 1932,
      "Ġtable": 1933,
      "Ġavoient": 1934,
      "ĠCom": 1935,
      "orts": 1936,
      "Ġautour": 1937,
      "gner": 1938,
      "ĠTous": 1939,
      "Ġfortune": 1940,
      "Ġcaract": 1941,
      "Ġpai": 1942,
      "Ġpure": 1943,
      "quelles": 1944,
      "Ġmou": 1945,
      "tÃ©res": 1946,
      "ĠCar": 1947,
      "Ġtran": 1948,
      "exemp": 1949,
      "oncer": 1950,
      "Ġperdre": 1951,
      "Ġmaniere": 1952,
      "Ġsienne": 1953,
      "ĠsitÃ´t": 1954,
      "ĠmÃ©th": 1955,
      "ĠÃ©ducation": 1956,
      "ĠAlors": 1957,
      "hÃ©": 1958,
      "histoire": 1959,
      "eres": 1960,
      "Ġval": 1961,
      "tiens": 1962,
      "ritÃ©": 1963,
      "Ġjeux": 1964,
      "Ġbons": 1965,
      "Ġbonnes": 1966,
      "aurois": 1967,
      "Ġgard": 1968,
      "licitÃ©": 1969,
      "Ã©tant": 1970,
      "Ġenfan": 1971,
      "Ġobser": 1972,
      "Ġraisonn": 1973,
      "Ġacte": 1974,
      "obÃ©": 1975,
      "ailleurs": 1976,
      "Ġanciens": 1977,
      "Ġabus": 1978,
      "Ġvoyant": 1979,
      "Ġsimples": 1980,
      "ĠÃ©trang": 1981,
      "Ġdernier": 1982,
      "ĠmÃ©pris": 1983,
      "Ġtyran": 1984,
      "Ġlors": 1985,
      "quÃ©": 1986,
      "Ġmin": 1987,
      "Ġmili": 1988,
      "Ġfeu": 1989,
      "rise": 1990,
      "instant": 1991,
      "ande": 1992,
      "Ġsonge": 1993,
      "ĠrÃ©v": 1994,
      "ĠÃªtres": 1995,
      "ĠMon": 1996,
      "exer": 1997,
      "Ġcompar": 1998,
      "enfance": 1999,
      "Ġaffec": 2000,
      "ĠdÃ©faut": 2001,
      "Ġsouveraine": 2002,
      "Ġmultipli": 2003,
      "cent": 2004,
      "la": 2005,
      "tance": 2006,
      "Ġmen": 2007,
      "ĠmÃª": 2008,
      "ĠÃ©cou": 2009,
      "Ġsavent": 2010,
      "Ã§ois": 2011,
      "ĠQuoi": 2012,
      "Ġavantage": 2013,
      "uction": 2014,
      "Ġamour": 2015,
      "Ġconservation": 2016,
      "Ġindiff": 2017,
      "Ġconduite": 2018,
      "ade": 2019,
      "rons": 2020,
      "Ġsc": 2021,
      "ĠnaÃ®tre": 2022,
      "ĠfrÃ©": 2023,
      "inaire": 2024,
      "Ġauquel": 2025,
      "issant": 2026,
      "ression": 2027,
      "ĠLA": 2028,
      "Ġris": 2029,
      "Ġexi": 2030,
      "ĠrÃ©d": 2031,
      "urent": 2032,
      "Ġpouvoit": 2033,
      "ĠDiÃ¨te": 2034,
      "ĠmÃ©m": 2035,
      "Ġsemblable": 2036,
      "ĠlÃ©gi": 2037,
      "Ġrepos": 2038,
      "mettre": 2039,
      "conque": 2040,
      "bilitÃ©": 2041,
      "fi": 2042,
      "Ġerreur": 2043,
      "enn": 2044,
      "quent": 2045,
      "Ġrob": 2046,
      "Ġpassion": 2047
    },
    "merges": [
      [
        "Ġ",
        "d"
      ],
      [
        "e",
        "s"
      ],
      [
        "Ġ",
        "l"
      ],
      [
        "e",
        "n"
      ],
      [
        "Ġ",
        "p"
      ],
      [
        "â",
        "Ģ"
      ],
      [
        "âĢ",
        "Ļ"
      ],
      [
        "Ã",
        "©"
      ],
      [
        "o",
        "n"
      ],
      [
        "Ġ",
        "s"
      ],
      [
        "q",
        "u"
      ],
      [
        "o",
        "u"
      ],
      [
        "Ġ",
        "c"
      ],
      [
        "r",
        "e"
      ],
      [
        "Ġ",
        "qu"
      ],
      [
        "e",
        "r"
      ],
      [
        "a",
        "n"
      ],
      [
        "o",
        "i"
      ],
      [
        "Ġd",
        "e"
      ],
      [
        "Ġ",
        "a"
      ],
      [
        "Ġ",
        "m"
      ],
      [
        "Ġ",
        "n"
      ],
      [
        "a",
        "i"
      ],
      [
        "en",
        "t"
      ],
      [
        "e",
        "u"
      ],
      [
        "i",
        "l"
      ],
      [
        "Ġ",
        "t"
      ],
      [
        "Ġ",
        "f"
      ],
      [
        "Ġ",
        "v"
      ],
      [
        "Ġ",
        "&"
      ],
      [
        "Ġl",
        "a"
      ],
      [
        "l",
        "e"
      ],
      [
        "Ġp",
        "a"
      ],
      [
        "Ġ",
        "Ã"
      ],
      [
        "t",
        "i"
      ],
      [
        "u",
        "n"
      ],
      [
        "Ġqu",
        "e"
      ],
      [
        "Ġl",
        "es"
      ],
      [
        "Ġl",
        "e"
      ],
      [
        "r",
        "i"
      ],
      [
        "ĠÃ",
        "ł"
      ],
      [
        "ou",
        "r"
      ],
      [
        "u",
        "s"
      ],
      [
        "i",
        "n"
      ],
      [
        "o",
        "m"
      ],
      [
        "o",
        "r"
      ],
      [
        "e",
        "l"
      ],
      [
        "es",
        "t"
      ],
      [
        "an",
        "t"
      ],
      [
        "Ġ",
        "j"
      ],
      [
        "t",
        "e"
      ],
      [
        "m",
        "e"
      ],
      [
        "ai",
        "s"
      ],
      [
        "u",
        "i"
      ],
      [
        "an",
        "s"
      ],
      [
        "eu",
        "r"
      ],
      [
        "ou",
        "s"
      ],
      [
        "Ġ",
        "en"
      ],
      [
        "Ġ",
        "r"
      ],
      [
        "on",
        "t"
      ],
      [
        "Ġd",
        "es"
      ],
      [
        "Ġn",
        "e"
      ],
      [
        "oi",
        "t"
      ],
      [
        "Ġ",
        "un"
      ],
      [
        "Ġa",
        "u"
      ],
      [
        "m",
        "ent"
      ],
      [
        "Ġ",
        "b"
      ],
      [
        "a",
        "u"
      ],
      [
        "c",
        "e"
      ],
      [
        "Ġpa",
        "r"
      ],
      [
        "Ġp",
        "l"
      ],
      [
        "Ġ",
        "il"
      ],
      [
        "Ġqu",
        "i"
      ],
      [
        "i",
        "s"
      ],
      [
        "t",
        "re"
      ],
      [
        "on",
        "s"
      ],
      [
        "t",
        "Ã©"
      ],
      [
        "Ġc",
        "e"
      ],
      [
        "Ã",
        "ª"
      ],
      [
        "Ã",
        "¨"
      ],
      [
        "Ġp",
        "r"
      ],
      [
        "Ġp",
        "our"
      ],
      [
        "a",
        "r"
      ],
      [
        "Ġpa",
        "s"
      ],
      [
        "Ġ",
        "g"
      ],
      [
        "s",
        "e"
      ],
      [
        "Ġ",
        "Ã©"
      ],
      [
        "r",
        "a"
      ],
      [
        "Ġpl",
        "us"
      ],
      [
        "Ġt",
        "ou"
      ],
      [
        "s",
        "i"
      ],
      [
        "oi",
        "n"
      ],
      [
        "Ġ",
        "est"
      ],
      [
        "Ġd",
        "ans"
      ],
      [
        "l",
        "i"
      ],
      [
        "Ġs",
        "e"
      ],
      [
        "a",
        "t"
      ],
      [
        "n",
        "e"
      ],
      [
        "r",
        "es"
      ],
      [
        "en",
        "d"
      ],
      [
        "ou",
        "v"
      ],
      [
        "el",
        "le"
      ],
      [
        "Ġc",
        "h"
      ],
      [
        "Ġs",
        "u"
      ],
      [
        "Ġ",
        "h"
      ],
      [
        "Ġ",
        "e"
      ],
      [
        "c",
        "h"
      ],
      [
        "l",
        "es"
      ],
      [
        "Ġc",
        "om"
      ],
      [
        "i",
        "t"
      ],
      [
        "a",
        "g"
      ],
      [
        "Ġa",
        "v"
      ],
      [
        "Ġd",
        "Ã©"
      ],
      [
        "i",
        "en"
      ],
      [
        "m",
        "p"
      ],
      [
        "Ġl",
        "eur"
      ],
      [
        "ti",
        "on"
      ],
      [
        "Ġd",
        "u"
      ],
      [
        "o",
        "s"
      ],
      [
        "oi",
        "s"
      ],
      [
        "qu",
        "e"
      ],
      [
        "Ġ",
        "re"
      ],
      [
        "Ġf",
        "ai"
      ],
      [
        "p",
        "p"
      ],
      [
        "Ġj",
        "e"
      ],
      [
        "Ġ",
        "in"
      ],
      [
        "Ġp",
        "eu"
      ],
      [
        "a",
        "b"
      ],
      [
        "an",
        "d"
      ],
      [
        "eu",
        "x"
      ],
      [
        "Ġl",
        "ui"
      ],
      [
        "oi",
        "r"
      ],
      [
        "i",
        "r"
      ],
      [
        "on",
        "n"
      ],
      [
        "f",
        "f"
      ],
      [
        "Ġs",
        "a"
      ],
      [
        "Ġ",
        "L"
      ],
      [
        "Ġtou",
        "t"
      ],
      [
        "m",
        "es"
      ],
      [
        "Ġ",
        "C"
      ],
      [
        "Ġt",
        "r"
      ],
      [
        "en",
        "s"
      ],
      [
        "Ġ",
        "o"
      ],
      [
        "Ġs",
        "on"
      ],
      [
        "a",
        "l"
      ],
      [
        "Ġs",
        "i"
      ],
      [
        "e",
        "c"
      ],
      [
        "Ã©",
        "s"
      ],
      [
        "a",
        "m"
      ],
      [
        "Ġn",
        "ous"
      ],
      [
        "i",
        "e"
      ],
      [
        "o",
        "p"
      ],
      [
        "ai",
        "n"
      ],
      [
        "or",
        "t"
      ],
      [
        "Ġun",
        "e"
      ],
      [
        "c",
        "i"
      ],
      [
        "Ãª",
        "me"
      ],
      [
        "Ġv",
        "ous"
      ],
      [
        "u",
        "re"
      ],
      [
        "e",
        "t"
      ],
      [
        "Ġm",
        "ais"
      ],
      [
        "Ġsu",
        "r"
      ],
      [
        "au",
        "t"
      ],
      [
        "Ġ",
        "S"
      ],
      [
        "Ġd",
        "i"
      ],
      [
        "d",
        "e"
      ],
      [
        "Ġc",
        "on"
      ],
      [
        "ĠÃ©",
        "t"
      ],
      [
        "g",
        "e"
      ],
      [
        "Ġ",
        "ou"
      ],
      [
        "Ġb",
        "ien"
      ],
      [
        "Ġ",
        "i"
      ],
      [
        "Ġs",
        "ans"
      ],
      [
        "Ã",
        "ł"
      ],
      [
        "Ġce",
        "t"
      ],
      [
        "o",
        "l"
      ],
      [
        "oin",
        "t"
      ],
      [
        "Ġs",
        "ont"
      ],
      [
        "er",
        "s"
      ],
      [
        "Ã¨",
        "re"
      ],
      [
        "c",
        "es"
      ],
      [
        "Ġh",
        "om"
      ],
      [
        "Ġp",
        "oint"
      ],
      [
        "Ã©",
        "t"
      ],
      [
        "Ġs",
        "er"
      ],
      [
        "Ã",
        "®"
      ],
      [
        "Ġ",
        "on"
      ],
      [
        "o",
        "y"
      ],
      [
        "m",
        "i"
      ],
      [
        "Ġm",
        "e"
      ],
      [
        "Ġ",
        "ri"
      ],
      [
        "our",
        "s"
      ],
      [
        "Ġl",
        "i"
      ],
      [
        "Ġ",
        "P"
      ],
      [
        "Ġe",
        "x"
      ],
      [
        "Ġs",
        "es"
      ],
      [
        "a",
        "c"
      ],
      [
        "Ġc",
        "el"
      ],
      [
        "a",
        "v"
      ],
      [
        "r",
        "oit"
      ],
      [
        "t",
        "er"
      ],
      [
        "Ġr",
        "Ã©"
      ],
      [
        "ouv",
        "er"
      ],
      [
        "ui",
        "s"
      ],
      [
        "Ġm",
        "a"
      ],
      [
        "a",
        "tion"
      ],
      [
        "Ġc",
        "es"
      ],
      [
        "Ġfai",
        "t"
      ],
      [
        "Ã",
        "»"
      ],
      [
        "Ġf",
        "or"
      ],
      [
        "d",
        "i"
      ],
      [
        "u",
        "l"
      ],
      [
        "Ġ",
        "I"
      ],
      [
        "Ã©",
        "e"
      ],
      [
        "ag",
        "e"
      ],
      [
        "Ġpeu",
        "t"
      ],
      [
        "ti",
        "ons"
      ],
      [
        "Ġm",
        "Ãªme"
      ],
      [
        "Ġav",
        "ec"
      ],
      [
        "an",
        "ce"
      ],
      [
        "oin",
        "s"
      ],
      [
        "v",
        "e"
      ],
      [
        "il",
        "s"
      ],
      [
        "Ġque",
        "l"
      ],
      [
        "Ġ",
        "J"
      ],
      [
        "Ġc",
        "ons"
      ],
      [
        "Ġ",
        "D"
      ],
      [
        "a",
        "s"
      ],
      [
        "Ġd",
        "is"
      ],
      [
        "Ġau",
        "x"
      ],
      [
        "t",
        "u"
      ],
      [
        "ĠÃ",
        "ª"
      ],
      [
        "eur",
        "s"
      ],
      [
        "ĠI",
        "l"
      ],
      [
        "Ġ",
        "E"
      ],
      [
        "Ġ",
        "y"
      ],
      [
        "Ġfai",
        "re"
      ],
      [
        "at",
        "ure"
      ],
      [
        "Ġg",
        "r"
      ],
      [
        "Ġt",
        "ous"
      ],
      [
        "b",
        "le"
      ],
      [
        "end",
        "re"
      ],
      [
        "Ġ",
        "elle"
      ],
      [
        "Ġn",
        "ature"
      ],
      [
        "Ġv",
        "i"
      ],
      [
        "r",
        "ai"
      ],
      [
        "es",
        "p"
      ],
      [
        "oi",
        "ent"
      ],
      [
        "Ġcet",
        "te"
      ],
      [
        "Ã©",
        "ri"
      ],
      [
        "Ġen",
        "f"
      ],
      [
        "un",
        "e"
      ],
      [
        "t",
        "s"
      ],
      [
        "Ã¨",
        "s"
      ],
      [
        "Ġcom",
        "me"
      ],
      [
        "e",
        "z"
      ],
      [
        "u",
        "x"
      ],
      [
        "Ġau",
        "t"
      ],
      [
        "u",
        "t"
      ],
      [
        "ĠÃª",
        "tre"
      ],
      [
        "Ġm",
        "on"
      ],
      [
        "r",
        "Ã©"
      ],
      [
        "Ġ",
        "M"
      ],
      [
        "en",
        "ce"
      ],
      [
        "Ã",
        "´"
      ],
      [
        "ab",
        "le"
      ],
      [
        "Ġc",
        "ont"
      ],
      [
        "Ġ",
        "A"
      ],
      [
        "on",
        "ne"
      ],
      [
        "j",
        "ours"
      ],
      [
        "Ġs",
        "eu"
      ],
      [
        "il",
        "e"
      ],
      [
        "Ġpr",
        "Ã©"
      ],
      [
        "Ġtou",
        "jours"
      ],
      [
        "re",
        "r"
      ],
      [
        "a",
        "pp"
      ],
      [
        "Ã",
        "¢"
      ],
      [
        "Ã©",
        "n"
      ],
      [
        "e",
        "m"
      ],
      [
        "el",
        "les"
      ],
      [
        "Ġde",
        "v"
      ],
      [
        "u",
        "e"
      ],
      [
        "Ġleur",
        "s"
      ],
      [
        "Ġ",
        "Q"
      ],
      [
        "Ġri",
        "en"
      ],
      [
        "Ġf",
        "aut"
      ],
      [
        "Ġn",
        "i"
      ],
      [
        "Ġgr",
        "and"
      ],
      [
        "e",
        "mp"
      ],
      [
        "Ġa",
        "pp"
      ],
      [
        "Ġ",
        "ent"
      ],
      [
        "Ġm",
        "oins"
      ],
      [
        "p",
        "r"
      ],
      [
        "an",
        "g"
      ],
      [
        "s",
        "er"
      ],
      [
        "Ġj",
        "am"
      ],
      [
        "Ġil",
        "s"
      ],
      [
        "t",
        "es"
      ],
      [
        "Ġp",
        "re"
      ],
      [
        "c",
        "u"
      ],
      [
        "Ġe",
        "t"
      ],
      [
        "Ġjam",
        "ais"
      ],
      [
        "Ġpr",
        "o"
      ],
      [
        "ch",
        "e"
      ],
      [
        "Ġp",
        "ri"
      ],
      [
        "Ġm",
        "o"
      ],
      [
        "Ġcom",
        "m"
      ],
      [
        "Ãª",
        "tre"
      ],
      [
        "Ã",
        "¹"
      ],
      [
        "Ġm",
        "al"
      ],
      [
        "Ġhom",
        "mes"
      ],
      [
        "s",
        "t"
      ],
      [
        "Ġd",
        "ont"
      ],
      [
        "Ã»",
        "t"
      ],
      [
        "ai",
        "t"
      ],
      [
        "Ġo",
        "b"
      ],
      [
        "or",
        "d"
      ],
      [
        "om",
        "me"
      ],
      [
        "Ġp",
        "e"
      ],
      [
        "g",
        "n"
      ],
      [
        "m",
        "b"
      ],
      [
        "Ġp",
        "uis"
      ],
      [
        "Ã©",
        "r"
      ],
      [
        "j",
        "et"
      ],
      [
        "o",
        "re"
      ],
      [
        "Ġpre",
        "mi"
      ],
      [
        "ĠJ",
        "e"
      ],
      [
        "ai",
        "re"
      ],
      [
        "Ġr",
        "ais"
      ],
      [
        "Ġqu",
        "and"
      ],
      [
        "au",
        "x"
      ],
      [
        "Ġs",
        "ent"
      ],
      [
        "u",
        "r"
      ],
      [
        "l",
        "er"
      ],
      [
        "Ġa",
        "c"
      ],
      [
        "Ã©",
        "ra"
      ],
      [
        "v",
        "ent"
      ],
      [
        "Ã",
        "§"
      ],
      [
        "e",
        "x"
      ],
      [
        "on",
        "c"
      ],
      [
        "Ġo",
        "Ã¹"
      ],
      [
        "b",
        "li"
      ],
      [
        "Ġc",
        "r"
      ],
      [
        "Ã´",
        "t"
      ],
      [
        "Ġa",
        "r"
      ],
      [
        "Ġ",
        "O"
      ],
      [
        "Ġd",
        "onn"
      ],
      [
        "il",
        "le"
      ],
      [
        "Ġpar",
        "ti"
      ],
      [
        "ar",
        "d"
      ],
      [
        "Ġi",
        "mp"
      ],
      [
        "o",
        "tre"
      ],
      [
        "s",
        "ent"
      ],
      [
        "Ġc",
        "o"
      ],
      [
        "Ġpr",
        "op"
      ],
      [
        "ch",
        "er"
      ],
      [
        "Ġhom",
        "me"
      ],
      [
        "i",
        "m"
      ],
      [
        "Ġa",
        "s"
      ],
      [
        "ti",
        "n"
      ],
      [
        "Ġd",
        "oit"
      ],
      [
        "a",
        "Ã®"
      ],
      [
        "Ġ",
        "T"
      ],
      [
        "Ġc",
        "ar"
      ],
      [
        "h",
        "omme"
      ],
      [
        "on",
        "d"
      ],
      [
        "ant",
        "s"
      ],
      [
        "Ã©",
        "g"
      ],
      [
        "i",
        "ent"
      ],
      [
        "Ġc",
        "onn"
      ],
      [
        "Ġcel",
        "ui"
      ],
      [
        "ĠQ",
        "u"
      ],
      [
        "c",
        "ou"
      ],
      [
        "u",
        "m"
      ],
      [
        "us",
        "si"
      ],
      [
        "c",
        "ore"
      ],
      [
        "v",
        "er"
      ],
      [
        "Ġen",
        "core"
      ],
      [
        "i",
        "tÃ©"
      ],
      [
        "ou",
        "t"
      ],
      [
        "e",
        "au"
      ],
      [
        "Ġpeu",
        "p"
      ],
      [
        "or",
        "te"
      ],
      [
        "is",
        "t"
      ],
      [
        "Ã©",
        "es"
      ],
      [
        "Ġp",
        "er"
      ],
      [
        "Ġ",
        "N"
      ],
      [
        "ri",
        "s"
      ],
      [
        "Ġs",
        "oit"
      ],
      [
        "Ġv",
        "ie"
      ],
      [
        "en",
        "ir"
      ],
      [
        "Ġv",
        "ou"
      ],
      [
        "eu",
        "re"
      ],
      [
        "ri",
        "t"
      ],
      [
        "in",
        "e"
      ],
      [
        "Ġcom",
        "p"
      ],
      [
        "i",
        "d"
      ],
      [
        "Ã©",
        "p"
      ],
      [
        "Ġ",
        "ont"
      ],
      [
        "Ġc",
        "or"
      ],
      [
        "Ġaut",
        "res"
      ],
      [
        "Ġau",
        "tre"
      ],
      [
        "Ġc",
        "a"
      ],
      [
        "Ġm",
        "an"
      ],
      [
        "Ġm",
        "es"
      ],
      [
        "Ġquel",
        "que"
      ],
      [
        "Ġb",
        "on"
      ],
      [
        "in",
        "si"
      ],
      [
        "Ġs",
        "o"
      ],
      [
        "i",
        "on"
      ],
      [
        "m",
        "Ãªme"
      ],
      [
        "Ġ",
        "V"
      ],
      [
        "Ġde",
        "ux"
      ],
      [
        "t",
        "at"
      ],
      [
        "ne",
        "ment"
      ],
      [
        "Ġtout",
        "es"
      ],
      [
        "Ġcel",
        "a"
      ],
      [
        "Ġj",
        "us"
      ],
      [
        "Ġj",
        "u"
      ],
      [
        "Ġdi",
        "ff"
      ],
      [
        "v",
        "re"
      ],
      [
        "or",
        "s"
      ],
      [
        "Ġli",
        "b"
      ],
      [
        "au",
        "tre"
      ],
      [
        "Ġm",
        "oi"
      ],
      [
        "o",
        "b"
      ],
      [
        "Ġav",
        "oir"
      ],
      [
        "p",
        "s"
      ],
      [
        "Ġf",
        "em"
      ],
      [
        "qu",
        "es"
      ],
      [
        "Ġseu",
        "l"
      ],
      [
        "Ġn",
        "os"
      ],
      [
        "om",
        "p"
      ],
      [
        "Ġd",
        "onc"
      ],
      [
        "ai",
        "l"
      ],
      [
        "Ġa",
        "ussi"
      ],
      [
        "ti",
        "tu"
      ],
      [
        "t",
        "t"
      ],
      [
        "ĠL",
        "e"
      ],
      [
        "ĠM",
        "ais"
      ],
      [
        "Ġv",
        "ol"
      ],
      [
        "Ġp",
        "u"
      ],
      [
        "oi",
        "x"
      ],
      [
        "Ġd",
        "roit"
      ],
      [
        "le",
        "ment"
      ],
      [
        "ui",
        "t"
      ],
      [
        "op",
        "h"
      ],
      [
        "Ġ",
        "G"
      ],
      [
        "Ġs",
        "ou"
      ],
      [
        "Ġc",
        "eux"
      ],
      [
        "ĠdÃ©",
        "p"
      ],
      [
        "Ġr",
        "est"
      ],
      [
        "Ġb",
        "es"
      ],
      [
        "Ġtou",
        "te"
      ],
      [
        "Ġp",
        "ouv"
      ],
      [
        "Ġ",
        "R"
      ],
      [
        "v",
        "oir"
      ],
      [
        "Ġd",
        "ou"
      ],
      [
        "ment",
        "s"
      ],
      [
        "Ġdi",
        "re"
      ],
      [
        "c",
        "l"
      ],
      [
        "o",
        "se"
      ],
      [
        "Ġd",
        "it"
      ],
      [
        "Ġj",
        "eu"
      ],
      [
        "ouv",
        "e"
      ],
      [
        "er",
        "re"
      ],
      [
        "ĠL",
        "a"
      ],
      [
        "Ġrais",
        "on"
      ],
      [
        "Ġb",
        "eau"
      ],
      [
        "Ġs",
        "ens"
      ],
      [
        "tÃ©",
        "s"
      ],
      [
        "l",
        "Ãł"
      ],
      [
        "Ã©",
        "d"
      ],
      [
        "ĠL",
        "es"
      ],
      [
        "Ãª",
        "mes"
      ],
      [
        "Ġfor",
        "ce"
      ],
      [
        "a",
        "tions"
      ],
      [
        "g",
        "er"
      ],
      [
        "i",
        "eux"
      ],
      [
        "n",
        "es"
      ],
      [
        "Ã¨",
        "res"
      ],
      [
        "o",
        "c"
      ],
      [
        "se",
        "z"
      ],
      [
        "Ġn",
        "on"
      ],
      [
        "Ġv",
        "er"
      ],
      [
        "il",
        "l"
      ],
      [
        "Ġav",
        "ant"
      ],
      [
        "Ġm",
        "ain"
      ],
      [
        "us",
        "e"
      ],
      [
        "Ġ",
        "esp"
      ],
      [
        "i",
        "er"
      ],
      [
        "ag",
        "es"
      ],
      [
        "Ġc",
        "elle"
      ],
      [
        "Ġr",
        "app"
      ],
      [
        "es",
        "s"
      ],
      [
        "Ġco",
        "eur"
      ],
      [
        "ab",
        "les"
      ],
      [
        "Ġpeup",
        "le"
      ],
      [
        "Ġa",
        "insi"
      ],
      [
        "Ġa",
        "l"
      ],
      [
        "Ġf",
        "ort"
      ],
      [
        "Ġg",
        "Ã©n"
      ],
      [
        "Ġapp",
        "r"
      ],
      [
        "om",
        "b"
      ],
      [
        "ĠS",
        "i"
      ],
      [
        "Ġr",
        "end"
      ],
      [
        "d",
        "re"
      ],
      [
        "en",
        "f"
      ],
      [
        "Ġt",
        "ra"
      ],
      [
        "Ġl",
        "ais"
      ],
      [
        "ĠE",
        "n"
      ],
      [
        "Ġn",
        "Ã©"
      ],
      [
        "Ġ",
        "an"
      ],
      [
        "g",
        "u"
      ],
      [
        "Ġpa",
        "y"
      ],
      [
        "ouver",
        "nement"
      ],
      [
        "Ġnature",
        "l"
      ],
      [
        "m",
        "er"
      ],
      [
        "a",
        "li"
      ],
      [
        "ri",
        "r"
      ],
      [
        "Ġent",
        "re"
      ],
      [
        "Ġvol",
        "ont"
      ],
      [
        "Ġa",
        "tt"
      ],
      [
        "si",
        "ble"
      ],
      [
        "Ã®",
        "tre"
      ],
      [
        "ĠD",
        "i"
      ],
      [
        "Ġp",
        "ers"
      ],
      [
        "Ġa",
        "b"
      ],
      [
        "mb",
        "l"
      ],
      [
        "ĠO",
        "n"
      ],
      [
        "Ġm",
        "ieux"
      ],
      [
        "a",
        "ti"
      ],
      [
        "Ġdonn",
        "er"
      ],
      [
        "g",
        "ne"
      ],
      [
        "u",
        "c"
      ],
      [
        "Ġt",
        "ant"
      ],
      [
        "Ġt",
        "emp"
      ],
      [
        "Ġbes",
        "oin"
      ],
      [
        "eu",
        "t"
      ],
      [
        "oi",
        "re"
      ],
      [
        "ĠrÃ©",
        "p"
      ],
      [
        "a",
        "d"
      ],
      [
        "m",
        "ile"
      ],
      [
        "Ġso",
        "ci"
      ],
      [
        "pr",
        "Ã¨s"
      ],
      [
        "o",
        "ri"
      ],
      [
        "ai",
        "ne"
      ],
      [
        "n",
        "ent"
      ],
      [
        "r",
        "Ãª"
      ],
      [
        "Ġf",
        "er"
      ],
      [
        "ĠC",
        "e"
      ],
      [
        "si",
        "on"
      ],
      [
        "Ġcon",
        "v"
      ],
      [
        "Ġtr",
        "op"
      ],
      [
        "Ġ",
        "eux"
      ],
      [
        "Ġin",
        "s"
      ],
      [
        "ĠnÃ©",
        "ces"
      ],
      [
        "Ġcor",
        "ps"
      ],
      [
        "Ġv",
        "otre"
      ],
      [
        "Ġpar",
        "ce"
      ],
      [
        "Ġh",
        "um"
      ],
      [
        "os",
        "es"
      ],
      [
        "Ġparti",
        "cu"
      ],
      [
        "b",
        "les"
      ],
      [
        "Ġparticu",
        "li"
      ],
      [
        "Ġch",
        "oses"
      ],
      [
        "ien",
        "s"
      ],
      [
        "aÃ®",
        "t"
      ],
      [
        "oph",
        "ie"
      ],
      [
        "ant",
        "e"
      ],
      [
        "Ġ",
        "elles"
      ],
      [
        "Ġv",
        "oir"
      ],
      [
        "Ġe",
        "ff"
      ],
      [
        "Ġpe",
        "ti"
      ],
      [
        "i",
        "c"
      ],
      [
        "Ġch",
        "a"
      ],
      [
        "Ġpremi",
        "er"
      ],
      [
        "ĠÃ©",
        "l"
      ],
      [
        "oy",
        "ens"
      ],
      [
        "Ġv",
        "oy"
      ],
      [
        "Ġpr",
        "es"
      ],
      [
        "ĠgÃ©n",
        "Ã©ra"
      ],
      [
        "Ġre",
        "g"
      ],
      [
        "Ġm",
        "et"
      ],
      [
        "Ġc",
        "ou"
      ],
      [
        "Ġv",
        "Ã©ri"
      ],
      [
        "ĠÃ©t",
        "oit"
      ],
      [
        "Ġm",
        "Ã©"
      ],
      [
        "v",
        "ers"
      ],
      [
        "Ġvou",
        "l"
      ],
      [
        "Ġsent",
        "i"
      ],
      [
        "an",
        "ge"
      ],
      [
        "si",
        "ons"
      ],
      [
        "Ġe",
        "mp"
      ],
      [
        "Ġser",
        "a"
      ],
      [
        "Ġli",
        "eu"
      ],
      [
        "st",
        "r"
      ],
      [
        "s",
        "ance"
      ],
      [
        "Ġf",
        "ois"
      ],
      [
        "Ġmon",
        "de"
      ],
      [
        "c",
        "er"
      ],
      [
        "Ġs",
        "au"
      ],
      [
        "cou",
        "p"
      ],
      [
        "Ġd",
        "onne"
      ],
      [
        "Ġser",
        "oit"
      ],
      [
        "Ġpu",
        "bli"
      ],
      [
        "Ġa",
        "ff"
      ],
      [
        "Ġlib",
        "er"
      ],
      [
        "Ġpar",
        "t"
      ],
      [
        "ĠÃ©",
        "g"
      ],
      [
        "Ġsu",
        "pp"
      ],
      [
        "ent",
        "e"
      ],
      [
        "Ġrapp",
        "ort"
      ],
      [
        "qu",
        "el"
      ],
      [
        "Ġcon",
        "f"
      ],
      [
        "on",
        "g"
      ],
      [
        "v",
        "ous"
      ],
      [
        "Ġqu",
        "oi"
      ],
      [
        "in",
        "s"
      ],
      [
        "n",
        "er"
      ],
      [
        "Ġm",
        "ont"
      ],
      [
        "Ġvolont",
        "Ã©"
      ],
      [
        "Ġv",
        "oit"
      ],
      [
        "ĠG",
        "ouvernement"
      ],
      [
        "o",
        "li"
      ],
      [
        "Ġg",
        "u"
      ],
      [
        "Ġch",
        "er"
      ],
      [
        "a",
        "le"
      ],
      [
        "Ã©",
        "tÃ©"
      ],
      [
        "Ġm",
        "is"
      ],
      [
        "ai",
        "ent"
      ],
      [
        "Ġob",
        "jet"
      ],
      [
        "Ġdiff",
        "Ã©r"
      ],
      [
        "ai",
        "res"
      ],
      [
        "Ġi",
        "d"
      ],
      [
        "Ġbeau",
        "coup"
      ],
      [
        "Ġn",
        "otre"
      ],
      [
        "te",
        "ment"
      ],
      [
        "ĠÃ©t",
        "at"
      ],
      [
        "Ġi",
        "m"
      ],
      [
        "Ġju",
        "ge"
      ],
      [
        "Ġp",
        "os"
      ],
      [
        "Ġau",
        "c"
      ],
      [
        "Ġrest",
        "e"
      ],
      [
        "qu",
        "er"
      ],
      [
        "Ġde",
        "m"
      ],
      [
        "Ġv",
        "rai"
      ],
      [
        "E",
        "tat"
      ],
      [
        "Ġr",
        "Ã©s"
      ],
      [
        "ĠdÃ©",
        "f"
      ],
      [
        "ci",
        "p"
      ],
      [
        "re",
        "z"
      ],
      [
        "Ġg",
        "ens"
      ],
      [
        "Ġm",
        "ar"
      ],
      [
        "ĠÃ",
        "¢"
      ],
      [
        "Ġas",
        "sez"
      ],
      [
        "l",
        "Ã©"
      ],
      [
        "Ġg",
        "o"
      ],
      [
        "Ġf",
        "r"
      ],
      [
        "ĠS",
        "ophie"
      ],
      [
        "Ġpl",
        "ais"
      ],
      [
        "Ġsa",
        "voir"
      ],
      [
        "Ġpay",
        "s"
      ],
      [
        "Ġc",
        "it"
      ],
      [
        "t",
        "res"
      ],
      [
        "Ġr",
        "endre"
      ],
      [
        "at",
        "t"
      ],
      [
        "ra",
        "s"
      ],
      [
        "Ġsu",
        "b"
      ],
      [
        "Ġf",
        "ont"
      ],
      [
        "Ġv",
        "eut"
      ],
      [
        "ĠÃ©",
        "tÃ©"
      ],
      [
        "Ġcont",
        "re"
      ],
      [
        "Ġs",
        "ui"
      ],
      [
        "Ãª",
        "te"
      ],
      [
        "ĠP",
        "our"
      ],
      [
        "Ġliber",
        "tÃ©"
      ],
      [
        "tÃ©",
        "rÃª"
      ],
      [
        "Ġtemp",
        "s"
      ],
      [
        "Ġcom",
        "ment"
      ],
      [
        "Ġenf",
        "ants"
      ],
      [
        "Ġpri",
        "n"
      ],
      [
        "t",
        "r"
      ],
      [
        "t",
        "ri"
      ],
      [
        "Ġse",
        "c"
      ],
      [
        "Ġa",
        "d"
      ],
      [
        "li",
        "g"
      ],
      [
        "Ġser",
        "v"
      ],
      [
        "eure",
        "ux"
      ],
      [
        "s",
        "es"
      ],
      [
        "oi",
        "lÃł"
      ],
      [
        "Ġt",
        "our"
      ],
      [
        "Ġy",
        "eux"
      ],
      [
        "Ġtra",
        "v"
      ],
      [
        "s",
        "ant"
      ],
      [
        "ti",
        "f"
      ],
      [
        "i",
        "ons"
      ],
      [
        "Ġa",
        "m"
      ],
      [
        "Ġt",
        "i"
      ],
      [
        "Ġp",
        "h"
      ],
      [
        "Ġch",
        "ose"
      ],
      [
        "ĠnÃ©ces",
        "s"
      ],
      [
        "Ġcha",
        "que"
      ],
      [
        "Ġl",
        "ong"
      ],
      [
        "ouv",
        "ent"
      ],
      [
        "Ġf",
        "ais"
      ],
      [
        "Ġsi",
        "mp"
      ],
      [
        "Ġl",
        "oi"
      ],
      [
        "os",
        "er"
      ],
      [
        "Ġtr",
        "Ã¨s"
      ],
      [
        "oy",
        "en"
      ],
      [
        "m",
        "in"
      ],
      [
        "Ġs",
        "ous"
      ],
      [
        "as",
        "se"
      ],
      [
        "ui",
        "re"
      ],
      [
        "aut",
        "res"
      ],
      [
        "Ġdev",
        "oir"
      ],
      [
        "Ġjus",
        "qu"
      ],
      [
        "Ġcom",
        "b"
      ],
      [
        "Ġprop",
        "re"
      ],
      [
        "i",
        "Ã¨re"
      ],
      [
        "a",
        "ce"
      ],
      [
        "Ġs",
        "ait"
      ],
      [
        "ab",
        "it"
      ],
      [
        "r",
        "ent"
      ],
      [
        "Ġpe",
        "ine"
      ],
      [
        "h",
        "eur"
      ],
      [
        "Ġc",
        "our"
      ],
      [
        "Ġj",
        "ou"
      ],
      [
        "Ġex",
        "p"
      ],
      [
        "ac",
        "un"
      ],
      [
        "Ġc",
        "er"
      ],
      [
        "Ġma",
        "Ã®tre"
      ],
      [
        "Ġpr",
        "Ã©s"
      ],
      [
        "p",
        "er"
      ],
      [
        "Ġ",
        "es"
      ],
      [
        "Ġf",
        "ac"
      ],
      [
        "esp",
        "rit"
      ],
      [
        "ang",
        "er"
      ],
      [
        "enf",
        "ant"
      ],
      [
        "aÃ®",
        "tre"
      ],
      [
        "Ġv",
        "ois"
      ],
      [
        "ord",
        "re"
      ],
      [
        "Ġfem",
        "me"
      ],
      [
        "Ġpouv",
        "oir"
      ],
      [
        "Ġch",
        "e"
      ],
      [
        "Ġa",
        "g"
      ],
      [
        "u",
        "de"
      ],
      [
        "Ġv",
        "os"
      ],
      [
        "Ġav",
        "oit"
      ],
      [
        "Ġin",
        "c"
      ],
      [
        "ist",
        "ra"
      ],
      [
        "ali",
        "tÃ©"
      ],
      [
        "Ġt",
        "er"
      ],
      [
        "rai",
        "re"
      ],
      [
        "m",
        "Ã©"
      ],
      [
        "Ġ",
        "us"
      ],
      [
        "an",
        "ces"
      ],
      [
        "tÃ©rÃª",
        "t"
      ],
      [
        "d",
        "es"
      ],
      [
        "v",
        "Ã©"
      ],
      [
        "Ġfem",
        "mes"
      ],
      [
        "Ġplais",
        "ir"
      ],
      [
        "i",
        "mp"
      ],
      [
        "Ġd",
        "oi"
      ],
      [
        "Ġs",
        "en"
      ],
      [
        "Ġcons",
        "er"
      ],
      [
        "Ġ",
        "U"
      ],
      [
        "Ġm",
        "Ãªmes"
      ],
      [
        "ent",
        "s"
      ],
      [
        "se",
        "ment"
      ],
      [
        "p",
        "ar"
      ],
      [
        "si",
        "r"
      ],
      [
        "il",
        "les"
      ],
      [
        "r",
        "ois"
      ],
      [
        "Ġse",
        "mbl"
      ],
      [
        "Ġsu",
        "ff"
      ],
      [
        "Ġm",
        "or"
      ],
      [
        "Ġjeu",
        "nes"
      ],
      [
        "Ġcomm",
        "un"
      ],
      [
        "Ġl",
        "oix"
      ],
      [
        "end",
        "ant"
      ],
      [
        "Ġpremi",
        "Ã¨re"
      ],
      [
        "ĠDi",
        "eu"
      ],
      [
        "Ġl",
        "Ã©g"
      ],
      [
        "Ã©t",
        "at"
      ],
      [
        "Ġpers",
        "onne"
      ],
      [
        "Ġn",
        "our"
      ],
      [
        "ti",
        "que"
      ],
      [
        "Ã¢",
        "t"
      ],
      [
        "il",
        "itÃ©"
      ],
      [
        "Ġt",
        "el"
      ],
      [
        "Ġch",
        "acun"
      ],
      [
        "ec",
        "t"
      ],
      [
        "ori",
        "tÃ©"
      ],
      [
        "Ġg",
        "ouver"
      ],
      [
        "Ġch",
        "ar"
      ],
      [
        "Ġtr",
        "ouve"
      ],
      [
        "am",
        "our"
      ],
      [
        "Ġdem",
        "and"
      ],
      [
        "ain",
        "s"
      ],
      [
        "o",
        "si"
      ],
      [
        "Ġl",
        "oin"
      ],
      [
        "is",
        "Ã©"
      ],
      [
        "Ã¨",
        "ve"
      ],
      [
        "Ġp",
        "ort"
      ],
      [
        "Ġs",
        "Ã»"
      ],
      [
        "Ġtr",
        "ouver"
      ],
      [
        "Ġenf",
        "in"
      ],
      [
        "Ġver",
        "tu"
      ],
      [
        "Ġpres",
        "que"
      ],
      [
        "c",
        "ri"
      ],
      [
        "Ġc",
        "i"
      ],
      [
        "Ġm",
        "ort"
      ],
      [
        "ch",
        "es"
      ],
      [
        "ĠdÃ©",
        "j"
      ],
      [
        "ĠdÃ©",
        "s"
      ],
      [
        "av",
        "oir"
      ],
      [
        "Ġin",
        "di"
      ],
      [
        "Ġseu",
        "lement"
      ],
      [
        "t",
        "out"
      ],
      [
        "Ġp",
        "oli"
      ],
      [
        "ai",
        "r"
      ],
      [
        "Ġenf",
        "ant"
      ],
      [
        "ex",
        "p"
      ],
      [
        "a",
        "re"
      ],
      [
        "qu",
        "oi"
      ],
      [
        "Ġn",
        "ul"
      ],
      [
        "Ġseu",
        "le"
      ],
      [
        "Ġtrav",
        "ail"
      ],
      [
        "ĠdÃ©j",
        "Ãł"
      ],
      [
        "c",
        "t"
      ],
      [
        "r",
        "o"
      ],
      [
        "v",
        "ant"
      ],
      [
        "Ġj",
        "our"
      ],
      [
        "Ġsu",
        "jet"
      ],
      [
        "it",
        "er"
      ],
      [
        "Ġsoci",
        "Ã©tÃ©"
      ],
      [
        "r",
        "ont"
      ],
      [
        "Ġ",
        "["
      ],
      [
        "ĠQ",
        "ue"
      ],
      [
        "Ġpuis",
        "se"
      ],
      [
        "ĠQu",
        "and"
      ],
      [
        "Ġdiff",
        "ic"
      ],
      [
        "Ġjeu",
        "ne"
      ],
      [
        "Ġl",
        "Ãł"
      ],
      [
        "Ġn",
        "om"
      ],
      [
        "Ġf",
        "ond"
      ],
      [
        "elle",
        "ment"
      ],
      [
        "j",
        "u"
      ],
      [
        "Ġa",
        "im"
      ],
      [
        "Ġf",
        "au"
      ],
      [
        "Ġpas",
        "sions"
      ],
      [
        "Ġex",
        "emp"
      ],
      [
        "i",
        "que"
      ],
      [
        "Ġa",
        "i"
      ],
      [
        "il",
        "es"
      ],
      [
        "ĠnÃ©cess",
        "aire"
      ],
      [
        "m",
        "is"
      ],
      [
        "Ġt",
        "erre"
      ],
      [
        "ĠC",
        "et"
      ],
      [
        "Ġbon",
        "heur"
      ],
      [
        "j",
        "e"
      ],
      [
        "Ġf",
        "i"
      ],
      [
        "Ġv",
        "u"
      ],
      [
        "Ġprin",
        "cip"
      ],
      [
        "ce",
        "p"
      ],
      [
        "Ġdis",
        "tin"
      ],
      [
        "Ġmo",
        "t"
      ],
      [
        "Ġeff",
        "et"
      ],
      [
        "Ġp",
        "ens"
      ],
      [
        "ag",
        "in"
      ],
      [
        "Ġre",
        "c"
      ],
      [
        "Ġin",
        "str"
      ],
      [
        "ĠprÃ©",
        "c"
      ],
      [
        "em",
        "s"
      ],
      [
        "l",
        "is"
      ],
      [
        "Ġ",
        "ut"
      ],
      [
        "Ġt",
        "ems"
      ],
      [
        "Ġg",
        "ar"
      ],
      [
        "Ġt",
        "u"
      ],
      [
        "Ġre",
        "m"
      ],
      [
        "Ġaut",
        "ant"
      ],
      [
        "f",
        "in"
      ],
      [
        "Ġb",
        "onne"
      ],
      [
        "li",
        "r"
      ],
      [
        "ĠE",
        "mile"
      ],
      [
        "ch",
        "ant"
      ],
      [
        "ien",
        "nent"
      ],
      [
        "Ġgrand",
        "e"
      ],
      [
        "Ġvou",
        "d"
      ],
      [
        "m",
        "Ãªmes"
      ],
      [
        "Ġs",
        "ais"
      ],
      [
        "Ġb",
        "r"
      ],
      [
        "c",
        "tion"
      ],
      [
        "Ġs",
        "ort"
      ],
      [
        "Ġr",
        "esp"
      ],
      [
        "Ġsou",
        "ff"
      ],
      [
        "Ġ[",
        "*"
      ],
      [
        "Ġa",
        "prÃ¨s"
      ],
      [
        "ti",
        "s"
      ],
      [
        "Ġp",
        "en"
      ],
      [
        "Ã©",
        "l"
      ],
      [
        "Ġdis",
        "p"
      ],
      [
        "Ġcont",
        "raire"
      ],
      [
        "Ġpro",
        "d"
      ],
      [
        "Ġ",
        "F"
      ],
      [
        "Ġm",
        "om"
      ],
      [
        "Ġn",
        "omb"
      ],
      [
        "ĠD",
        "ans"
      ],
      [
        "titu",
        "tion"
      ],
      [
        "Ã©t",
        "oit"
      ],
      [
        "i",
        "f"
      ],
      [
        "y",
        "ant"
      ],
      [
        "Ġs",
        "ouvent"
      ],
      [
        "ĠÃ",
        "ī"
      ],
      [
        "Ġre",
        "t"
      ],
      [
        "Ġcont",
        "ra"
      ],
      [
        "au",
        "v"
      ],
      [
        "Ġe",
        "Ã»t"
      ],
      [
        "Ġgo",
        "Ã»t"
      ],
      [
        "Ġf",
        "ut"
      ],
      [
        "Ġenf",
        "ans"
      ],
      [
        "Ġdoi",
        "vent"
      ],
      [
        "m",
        "ens"
      ],
      [
        "Ġpr",
        "endre"
      ],
      [
        "Ġre",
        "pr"
      ],
      [
        "as",
        "s"
      ],
      [
        "Ġal",
        "ors"
      ],
      [
        "g",
        "es"
      ],
      [
        "ĠÃ©",
        "le"
      ],
      [
        "ĠÃ©t",
        "ab"
      ],
      [
        "Ġcel",
        "les"
      ],
      [
        "Ġs",
        "el"
      ],
      [
        "Ġc",
        "ri"
      ],
      [
        "er",
        "n"
      ],
      [
        "Ġpr",
        "end"
      ],
      [
        "r",
        "ant"
      ],
      [
        "ĠdÃ©",
        "li"
      ],
      [
        "v",
        "es"
      ],
      [
        "Ã©",
        "qu"
      ],
      [
        "Ġhum",
        "ain"
      ],
      [
        "f",
        "ois"
      ],
      [
        "v",
        "res"
      ],
      [
        "Ġf",
        "in"
      ],
      [
        "Ġpeu",
        "vent"
      ],
      [
        "Ġp",
        "i"
      ],
      [
        "Ġa",
        "it"
      ],
      [
        "ri",
        "b"
      ],
      [
        "in",
        "t"
      ],
      [
        "Ġin",
        "d"
      ],
      [
        "Ġper",
        "d"
      ],
      [
        "m",
        "ble"
      ],
      [
        "ĠÃ©t",
        "ant"
      ],
      [
        "Ã©t",
        "end"
      ],
      [
        "Ġsent",
        "ir"
      ],
      [
        "Ġsenti",
        "ment"
      ],
      [
        "Ġauc",
        "un"
      ],
      [
        "Ġcit",
        "oyens"
      ],
      [
        "c",
        "ien"
      ],
      [
        "l",
        "le"
      ],
      [
        "il",
        "os"
      ],
      [
        "Ġtr",
        "omp"
      ],
      [
        "Ġvi",
        "ent"
      ],
      [
        "ĠprÃ©",
        "v"
      ],
      [
        "Ġmom",
        "ent"
      ],
      [
        "t",
        "ant"
      ],
      [
        "ti",
        "r"
      ],
      [
        "Ġi",
        "ci"
      ],
      [
        "uc",
        "ation"
      ],
      [
        "Ġid",
        "Ã©es"
      ],
      [
        "Ġnomb",
        "re"
      ],
      [
        "x",
        "i"
      ],
      [
        "Ġc",
        "l"
      ],
      [
        "Ġn",
        "ouv"
      ],
      [
        "Ġtr",
        "ouv"
      ],
      [
        "Ġme",
        "mb"
      ],
      [
        "ĠD",
        "e"
      ],
      [
        "Ġas",
        "s"
      ],
      [
        "Ġs",
        "uis"
      ],
      [
        "Ġgrand",
        "s"
      ],
      [
        "p",
        "i"
      ],
      [
        "Ġs",
        "orte"
      ],
      [
        "Ġm",
        "Ã¨re"
      ],
      [
        "Ġch",
        "ange"
      ],
      [
        "r",
        "an"
      ],
      [
        "Ġre",
        "mp"
      ],
      [
        ".",
        "]"
      ],
      [
        "Ġs",
        "ien"
      ],
      [
        "oi",
        "gn"
      ],
      [
        "Ġr",
        "en"
      ],
      [
        "e",
        "ff"
      ],
      [
        "Ġl",
        "ois"
      ],
      [
        "er",
        "a"
      ],
      [
        "ol",
        "u"
      ],
      [
        "ser",
        "v"
      ],
      [
        "Ġsel",
        "on"
      ],
      [
        "ui",
        "te"
      ],
      [
        "Ġvi",
        "vre"
      ],
      [
        "Ġmo",
        "eurs"
      ],
      [
        "Ġpeup",
        "les"
      ],
      [
        "Ġman",
        "iÃ¨re"
      ],
      [
        "b",
        "re"
      ],
      [
        "Ġcons",
        "id"
      ],
      [
        "Ġcomm",
        "en"
      ],
      [
        "ti",
        "me"
      ],
      [
        "v",
        "id"
      ],
      [
        "Ġcon",
        "d"
      ],
      [
        "ĠrÃ©",
        "f"
      ],
      [
        "ĠÃ¢",
        "ge"
      ],
      [
        "Ġfor",
        "me"
      ],
      [
        "g",
        "ent"
      ],
      [
        "Ġ",
        "ans"
      ],
      [
        "en",
        "ant"
      ],
      [
        "Ġn",
        "ais"
      ],
      [
        "ul",
        "ti"
      ],
      [
        "ĠV",
        "ous"
      ],
      [
        "Ã©",
        "m"
      ],
      [
        "Ġpas",
        "ser"
      ],
      [
        "Ġces",
        "se"
      ],
      [
        "Ġpro",
        "f"
      ],
      [
        "ĠU",
        "n"
      ],
      [
        "Ġpar",
        "ler"
      ],
      [
        "Ã¨",
        "ce"
      ],
      [
        "Ġre",
        "p"
      ],
      [
        "Ġcer",
        "t"
      ],
      [
        "Ġl",
        "ang"
      ],
      [
        "il",
        "i"
      ],
      [
        "Ġ",
        "B"
      ],
      [
        "Ġm",
        "ag"
      ],
      [
        "Ġm",
        "oyen"
      ],
      [
        "Ġf",
        "Ã»t"
      ],
      [
        "Ġch",
        "ez"
      ],
      [
        "Ġh",
        "eureux"
      ],
      [
        "Ġo",
        "c"
      ],
      [
        "ient",
        "Ã´t"
      ],
      [
        "s",
        "Ã©"
      ],
      [
        "oi",
        "e"
      ],
      [
        "Ġ&",
        ","
      ],
      [
        "Ġsu",
        "c"
      ],
      [
        "ĠdÃ©",
        "sir"
      ],
      [
        "ab",
        "ord"
      ],
      [
        "Ġquel",
        "ques"
      ],
      [
        "ĠN",
        "ous"
      ],
      [
        "Ġobjet",
        "s"
      ],
      [
        "ar",
        "t"
      ],
      [
        "Ġre",
        "l"
      ],
      [
        "Ġcon",
        "tin"
      ],
      [
        "Ġdis",
        "c"
      ],
      [
        "Ġcr",
        "ain"
      ],
      [
        "d",
        "s"
      ],
      [
        "Ġc",
        "as"
      ],
      [
        "Ġpl",
        "ace"
      ],
      [
        "ĠdÃ©p",
        "end"
      ],
      [
        "Ġph",
        "ilos"
      ],
      [
        "Ġs",
        "oin"
      ],
      [
        "Ġv",
        "ain"
      ],
      [
        "Ġpa",
        "u"
      ],
      [
        "ra",
        "ge"
      ],
      [
        "ouver",
        "ain"
      ],
      [
        "Ġac",
        "c"
      ],
      [
        "Ġreg",
        "ard"
      ],
      [
        "t",
        "te"
      ],
      [
        "Ġqu",
        "es"
      ],
      [
        "Ġm",
        "Ã©ri"
      ],
      [
        "Ġf",
        "l"
      ],
      [
        "ĠprÃ©",
        "ju"
      ],
      [
        "av",
        "ant"
      ],
      [
        "Ġan",
        "im"
      ],
      [
        "f",
        "s"
      ],
      [
        "Ġh",
        "onn"
      ],
      [
        "Ġre",
        "v"
      ],
      [
        "ĠC",
        "h"
      ],
      [
        "Ġpri",
        "x"
      ],
      [
        "ĠvÃ©ri",
        "t"
      ],
      [
        "Ġf",
        "oi"
      ],
      [
        "Ġf",
        "am"
      ],
      [
        "te",
        "mp"
      ],
      [
        "ie",
        "re"
      ],
      [
        "ĠR",
        "om"
      ],
      [
        "ĠgÃ©nÃ©ra",
        "le"
      ],
      [
        "om",
        "mes"
      ],
      [
        ".",
        "."
      ],
      [
        "g",
        "ue"
      ],
      [
        "Ġp",
        "orte"
      ],
      [
        "Ġm",
        "ouve"
      ],
      [
        "Ġv",
        "oix"
      ],
      [
        "Ġh",
        "abit"
      ],
      [
        "aut",
        "oritÃ©"
      ],
      [
        "Ġmo",
        "d"
      ],
      [
        "tri",
        "e"
      ],
      [
        "Ġ",
        "eu"
      ],
      [
        "Ġs",
        "oins"
      ],
      [
        "Ġr",
        "Ã¨"
      ],
      [
        "app",
        "r"
      ],
      [
        "Ġlib",
        "re"
      ],
      [
        "Ġesp",
        "rit"
      ],
      [
        "Ġm",
        "auv"
      ],
      [
        "Ġt",
        "on"
      ],
      [
        "ĠdÃ©",
        "v"
      ],
      [
        "Ã§",
        "ons"
      ],
      [
        "ĠrÃ©p",
        "ond"
      ],
      [
        "Ġmemb",
        "res"
      ],
      [
        "Ġ",
        "H"
      ],
      [
        "Ġb",
        "ientÃ´t"
      ],
      [
        "ĠA",
        "u"
      ],
      [
        "Ġimp",
        "ort"
      ],
      [
        "o",
        "pp"
      ],
      [
        "x",
        "e"
      ],
      [
        "ĠÃ©",
        "p"
      ],
      [
        "Ġin",
        "f"
      ],
      [
        "Ġcons",
        "Ã©qu"
      ],
      [
        "Ġab",
        "s"
      ],
      [
        "ĠÃ©l",
        "Ã¨ve"
      ],
      [
        "isÃ©",
        "ment"
      ],
      [
        "ĠCet",
        "te"
      ],
      [
        "l",
        "ent"
      ],
      [
        "eu",
        "se"
      ],
      [
        "le",
        "z"
      ],
      [
        "Ġpar",
        "mi"
      ],
      [
        "Ġme",
        "ill"
      ],
      [
        "ĠP",
        "ar"
      ],
      [
        "Ġquel",
        "le"
      ],
      [
        "Ġca",
        "p"
      ],
      [
        "ĠV",
        "oilÃł"
      ],
      [
        "g",
        "r"
      ],
      [
        "ĠÃ",
        "´"
      ],
      [
        "Ġar",
        "ri"
      ],
      [
        "Ġpeti",
        "t"
      ],
      [
        "u",
        "ri"
      ],
      [
        "en",
        "ces"
      ],
      [
        "Ã©",
        "rer"
      ],
      [
        "ac",
        "c"
      ],
      [
        "Ġma",
        "ri"
      ],
      [
        "Ġmet",
        "tre"
      ],
      [
        "Ġb",
        "or"
      ],
      [
        "Ġsur",
        "tout"
      ],
      [
        "Ġdevoir",
        "s"
      ],
      [
        "a",
        "ff"
      ],
      [
        "Ġ",
        "\""
      ],
      [
        "Ġp",
        "Ã¨re"
      ],
      [
        "Ġs",
        "oient"
      ],
      [
        "Ġf",
        "ra"
      ],
      [
        "el",
        "s"
      ],
      [
        "Ġau",
        "ra"
      ],
      [
        "tÃ©",
        "e"
      ],
      [
        "Ġpuis",
        "sance"
      ],
      [
        "Ġmes",
        "ure"
      ],
      [
        "oy",
        "ez"
      ],
      [
        "ĠprÃ©",
        "f"
      ],
      [
        "Ġmain",
        "s"
      ],
      [
        "ĠvÃ©rit",
        "able"
      ],
      [
        "Ġmauv",
        "ais"
      ],
      [
        "g",
        "rÃ©"
      ],
      [
        "i",
        "gn"
      ],
      [
        "u",
        "es"
      ],
      [
        "Ã",
        "ī"
      ],
      [
        "Ġc",
        "ent"
      ],
      [
        "Ãª",
        "tes"
      ],
      [
        "Ġh",
        "on"
      ],
      [
        "Ġo",
        "p"
      ],
      [
        "Ġma",
        "xi"
      ],
      [
        "ĠE",
        "lle"
      ],
      [
        "Ġpremi",
        "ers"
      ],
      [
        "Ġcou",
        "p"
      ],
      [
        "ĠvÃ©ri",
        "tÃ©"
      ],
      [
        "Ġpubli",
        "que"
      ],
      [
        "Ã©",
        "cu"
      ],
      [
        "Ġs",
        "it"
      ],
      [
        "Ġpour",
        "quoi"
      ],
      [
        "ĠC",
        "or"
      ],
      [
        "ĠÃ©t",
        "r"
      ],
      [
        "Ã®",
        "t"
      ],
      [
        "Ġconn",
        "ais"
      ],
      [
        "Ġca",
        "use"
      ],
      [
        "d",
        "ess"
      ],
      [
        "u",
        "bli"
      ],
      [
        "Ġmal",
        "h"
      ],
      [
        "Ġju",
        "ger"
      ],
      [
        "cl",
        "av"
      ],
      [
        "Ġlais",
        "ser"
      ],
      [
        "Ġ",
        "or"
      ],
      [
        "ou",
        "te"
      ],
      [
        "ent",
        "end"
      ],
      [
        "Ã¨",
        "te"
      ],
      [
        "Ġg",
        "ra"
      ],
      [
        "ĠdÃ©",
        "t"
      ],
      [
        "Ġapp",
        "ar"
      ],
      [
        "g",
        "Ã©s"
      ],
      [
        "Ġs",
        "ages"
      ],
      [
        "Ġv",
        "eux"
      ],
      [
        "ĠdÃ©",
        "c"
      ],
      [
        "Ġin",
        "tÃ©rÃªt"
      ],
      [
        "Ġparti",
        "e"
      ],
      [
        "Ġcher",
        "cher"
      ],
      [
        "ĠprÃ©s",
        "ent"
      ],
      [
        "Ġp",
        "or"
      ],
      [
        "ĠP",
        "ol"
      ],
      [
        "Ġimp",
        "os"
      ],
      [
        "a",
        "rer"
      ],
      [
        "Ġd",
        "ern"
      ],
      [
        "Ġn",
        "o"
      ],
      [
        "Ã¨",
        "me"
      ],
      [
        "Ġtr",
        "ou"
      ],
      [
        "Ġex",
        "er"
      ],
      [
        "Ġpri",
        "s"
      ],
      [
        "Ġquelque",
        "fois"
      ],
      [
        "ĠsÃ»",
        "r"
      ],
      [
        "Ġla",
        "qu"
      ],
      [
        "ti",
        "ve"
      ],
      [
        "ant",
        "es"
      ],
      [
        "ĠrÃ©",
        "g"
      ],
      [
        "rai",
        "t"
      ],
      [
        "Ġcr",
        "ois"
      ],
      [
        "Ġcomb",
        "ien"
      ],
      [
        "Ġexemp",
        "le"
      ],
      [
        "o",
        "Ã®tre"
      ],
      [
        "v",
        "is"
      ],
      [
        "es",
        "se"
      ],
      [
        "en",
        "u"
      ],
      [
        "Ġn",
        "ation"
      ],
      [
        "ti",
        "ce"
      ],
      [
        "Ġgouver",
        "n"
      ],
      [
        "l",
        "us"
      ],
      [
        "r",
        "ais"
      ],
      [
        "Ġs",
        "p"
      ],
      [
        "us",
        "er"
      ],
      [
        "om",
        "m"
      ],
      [
        "is",
        "e"
      ],
      [
        "onn",
        "es"
      ],
      [
        "ĠA",
        "insi"
      ],
      [
        "Ġmag",
        "istra"
      ],
      [
        "ĠCor",
        "ps"
      ],
      [
        "a",
        "ri"
      ],
      [
        "h",
        "onn"
      ],
      [
        "Ġ",
        "ord"
      ],
      [
        "Ġm",
        "ille"
      ],
      [
        "ouv",
        "rage"
      ],
      [
        "Ã©n",
        "at"
      ],
      [
        "cu",
        "p"
      ],
      [
        "Ġappr",
        "endre"
      ],
      [
        "Ġnaturel",
        "le"
      ],
      [
        "Ġsub",
        "s"
      ],
      [
        "oi",
        "si"
      ],
      [
        "Ġm",
        "Ã©p"
      ],
      [
        "Ġle",
        "quel"
      ],
      [
        "is",
        "te"
      ],
      [
        "ch",
        "Ã©"
      ],
      [
        "Ġent",
        "end"
      ],
      [
        "Ġhum",
        "aine"
      ],
      [
        "Ġvoul",
        "oir"
      ],
      [
        "y",
        "st"
      ],
      [
        "Ã©",
        "rÃ©"
      ],
      [
        "Ġm",
        "aux"
      ],
      [
        "Ġpl",
        "ut"
      ],
      [
        "ag",
        "er"
      ],
      [
        "Ġtr",
        "ai"
      ],
      [
        "i",
        "ci"
      ],
      [
        "Ã©",
        "v"
      ],
      [
        "Ġs",
        "oi"
      ],
      [
        "Ġf",
        "al"
      ],
      [
        "Ġcons",
        "titution"
      ],
      [
        "Ġrapport",
        "s"
      ],
      [
        "Ġci",
        "v"
      ],
      [
        "Ġplut",
        "Ã´t"
      ],
      [
        "a",
        "les"
      ],
      [
        "ent",
        "es"
      ],
      [
        "Ġf",
        "av"
      ],
      [
        "ti",
        "Ã©"
      ],
      [
        "Ġac",
        "qu"
      ],
      [
        "Ġpos",
        "sible"
      ],
      [
        "c",
        "Ã©"
      ],
      [
        "an",
        "itÃ©"
      ],
      [
        "Ġv",
        "oilÃł"
      ],
      [
        "us",
        "es"
      ],
      [
        "is",
        "ter"
      ],
      [
        "at",
        "s"
      ],
      [
        "ĠN",
        "on"
      ],
      [
        "Ġauc",
        "une"
      ],
      [
        "Ġrec",
        "onn"
      ],
      [
        "a",
        "p"
      ],
      [
        "l",
        "eurs"
      ],
      [
        "ti",
        "e"
      ],
      [
        "ti",
        "ent"
      ],
      [
        "in",
        "str"
      ],
      [
        "Ġch",
        "oix"
      ],
      [
        "onn",
        "er"
      ],
      [
        "Ã®",
        "tres"
      ],
      [
        "Ġcomm",
        "ence"
      ],
      [
        "Ġdroit",
        "s"
      ],
      [
        "i",
        "re"
      ],
      [
        "Ã©",
        "c"
      ],
      [
        "on",
        "de"
      ],
      [
        "Ġs",
        "age"
      ],
      [
        "Ġg",
        "en"
      ],
      [
        "Ġjuge",
        "ment"
      ],
      [
        "en",
        "ez"
      ],
      [
        "Ġre",
        "f"
      ],
      [
        "Ġre",
        "lig"
      ],
      [
        "Ġma",
        "Ã®tres"
      ],
      [
        "Ġmo",
        "ts"
      ],
      [
        "Ġbes",
        "oins"
      ],
      [
        "ĠR",
        "Ã©p"
      ],
      [
        "Ġsen",
        "sible"
      ],
      [
        "g",
        "ment"
      ],
      [
        "Ġt",
        "omb"
      ],
      [
        "Ġt",
        "Ãªte"
      ],
      [
        "is",
        "sent"
      ],
      [
        "ĠÃ©",
        "c"
      ],
      [
        "ag",
        "ne"
      ],
      [
        "ĠN",
        "e"
      ],
      [
        "Ġj",
        "ours"
      ],
      [
        "me",
        "t"
      ],
      [
        "ce",
        "voir"
      ],
      [
        "Ġsa",
        "v"
      ],
      [
        "Ã©ri",
        "ence"
      ],
      [
        "Ġmain",
        "t"
      ],
      [
        "Ġparticuli",
        "er"
      ],
      [
        "Ġfau",
        "d"
      ],
      [
        "Ġlaqu",
        "elle"
      ],
      [
        "Ġl",
        "u"
      ],
      [
        "re",
        "ux"
      ],
      [
        "is",
        "l"
      ],
      [
        "ec",
        "tion"
      ],
      [
        "Ã©ri",
        "r"
      ],
      [
        "ĠT",
        "out"
      ],
      [
        "Ġemp",
        "l"
      ],
      [
        "Ġques",
        "tion"
      ],
      [
        "dess",
        "us"
      ],
      [
        "ĠRÃ©p",
        "ubli"
      ],
      [
        "i",
        "eurs"
      ],
      [
        "p",
        "endant"
      ],
      [
        "Ġr",
        "ess"
      ],
      [
        "Ġpr",
        "om"
      ],
      [
        "si",
        "tÃ©"
      ],
      [
        "ĠdÃ©",
        "g"
      ],
      [
        "Ġatt",
        "ent"
      ],
      [
        "Ġid",
        "Ã©e"
      ],
      [
        "Ġserv",
        "ir"
      ],
      [
        "Ġsimp",
        "le"
      ],
      [
        "Ġdiffic",
        "ile"
      ],
      [
        "Ġcontin",
        "u"
      ],
      [
        "e",
        "il"
      ],
      [
        "g",
        "le"
      ],
      [
        "Ġm",
        "oyens"
      ],
      [
        "Ġt",
        "e"
      ],
      [
        "Ġre",
        "Ã§"
      ],
      [
        "Ġdou",
        "te"
      ],
      [
        "Ġut",
        "ile"
      ],
      [
        "g",
        "Ã©"
      ],
      [
        "ent",
        "re"
      ],
      [
        "Ġt",
        "ient"
      ],
      [
        "Ġb",
        "ou"
      ],
      [
        "res",
        "se"
      ],
      [
        "Ġtr",
        "ans"
      ],
      [
        "ci",
        "tÃ©"
      ],
      [
        "Ġser",
        "ont"
      ],
      [
        "ĠIl",
        "s"
      ],
      [
        "Ġpeti",
        "ts"
      ],
      [
        "est",
        "e"
      ],
      [
        "Ġr",
        "oi"
      ],
      [
        "is",
        "s"
      ],
      [
        "rai",
        "ent"
      ],
      [
        "st",
        "ant"
      ],
      [
        "Ġparticuli",
        "ers"
      ],
      [
        "Ġsen",
        "si"
      ],
      [
        "u",
        "p"
      ],
      [
        "en",
        "ne"
      ],
      [
        "in",
        "er"
      ],
      [
        "te",
        "z"
      ],
      [
        "ĠdÃ©",
        "tr"
      ],
      [
        "Ġcon",
        "c"
      ],
      [
        "ul",
        "tÃ©s"
      ],
      [
        "Ã¢",
        "me"
      ],
      [
        "Ġdev",
        "ient"
      ],
      [
        "Ġlais",
        "se"
      ],
      [
        "Ġatt",
        "a"
      ],
      [
        "Ġdistin",
        "gu"
      ],
      [
        "h",
        "um"
      ],
      [
        "our",
        "d"
      ],
      [
        "tÃ©",
        "ri"
      ],
      [
        "Ġpr",
        "Ã©tend"
      ],
      [
        "Ġplus",
        "ieurs"
      ],
      [
        "Ġin",
        "ter"
      ],
      [
        "Ġimp",
        "orte"
      ],
      [
        "Ġpoli",
        "tique"
      ],
      [
        "c",
        "a"
      ],
      [
        "r",
        "ui"
      ],
      [
        "Ġc",
        "roit"
      ],
      [
        "Ġv",
        "is"
      ],
      [
        "Ġpa",
        "trie"
      ],
      [
        "Ã©g",
        "alitÃ©"
      ],
      [
        "temp",
        "s"
      ],
      [
        "Ġs",
        "in"
      ],
      [
        "qu",
        "i"
      ],
      [
        "Ġm",
        "Ã©t"
      ],
      [
        "us",
        "age"
      ],
      [
        "Ġse",
        "mble"
      ],
      [
        "Ġh",
        "ors"
      ],
      [
        "Ġdi",
        "vers"
      ],
      [
        "Ġbien",
        "s"
      ],
      [
        "Ġcr",
        "oire"
      ],
      [
        "erre",
        "ur"
      ],
      [
        "Ġti",
        "rer"
      ],
      [
        "Ġsembl",
        "ables"
      ],
      [
        "Ġrem",
        "ar"
      ],
      [
        "Ġf",
        "ille"
      ],
      [
        "Ġpar",
        "le"
      ],
      [
        "ag",
        "it"
      ],
      [
        "Ġri",
        "ches"
      ],
      [
        "Ã©ra",
        "tion"
      ],
      [
        "Ġconn",
        "aÃ®tre"
      ],
      [
        "ĠdiffÃ©r",
        "ence"
      ],
      [
        "Ġim",
        "agin"
      ],
      [
        "ĠÃī",
        "mile"
      ],
      [
        "h",
        "abit"
      ],
      [
        "Ã",
        "¯"
      ],
      [
        "Ġt",
        "al"
      ],
      [
        "oin",
        "dre"
      ],
      [
        "Ġsi",
        "gn"
      ],
      [
        "Ġconn",
        "ois"
      ],
      [
        "quel",
        "s"
      ],
      [
        "Ġport",
        "er"
      ],
      [
        "Ġphilos",
        "oph"
      ],
      [
        "Ġfra",
        "pp"
      ],
      [
        "a",
        "lement"
      ],
      [
        "o",
        "t"
      ],
      [
        "r",
        "ain"
      ],
      [
        "en",
        "se"
      ],
      [
        "re",
        "t"
      ],
      [
        "in",
        "tÃ©rÃªt"
      ],
      [
        "Ġh",
        "eure"
      ],
      [
        "ch",
        "ent"
      ],
      [
        "ĠS",
        "ouverain"
      ],
      [
        "ĠO",
        "r"
      ],
      [
        "ĠprÃ©ju",
        "gÃ©s"
      ],
      [
        "o",
        "g"
      ],
      [
        "o",
        "de"
      ],
      [
        "in",
        "ion"
      ],
      [
        "Ġfor",
        "ces"
      ],
      [
        "Ġpubli",
        "c"
      ],
      [
        "Ġconser",
        "ver"
      ],
      [
        "Ġdisc",
        "ours"
      ],
      [
        "le",
        "x"
      ],
      [
        "Ġav",
        "ez"
      ],
      [
        "ĠC",
        "es"
      ],
      [
        "ĠÃ©t",
        "oient"
      ],
      [
        "cou",
        "tu"
      ],
      [
        "Ã©d",
        "ucation"
      ],
      [
        "Ġesp",
        "Ã¨ce"
      ],
      [
        "Ġplaisir",
        "s"
      ],
      [
        "Ġfam",
        "ille"
      ],
      [
        "Ġrelig",
        "ion"
      ],
      [
        "i",
        "es"
      ],
      [
        "l",
        "u"
      ],
      [
        "Ġp",
        "ie"
      ],
      [
        "Ġav",
        "ons"
      ],
      [
        "Ġcr",
        "u"
      ],
      [
        "oc",
        "ra"
      ],
      [
        "Ġappr",
        "end"
      ],
      [
        "Ġgo",
        "Ã»"
      ],
      [
        "ĠmÃ©ri",
        "te"
      ],
      [
        "n",
        "Ã©"
      ],
      [
        "o",
        "le"
      ],
      [
        "Ġf",
        "a"
      ],
      [
        "Ġau",
        "roit"
      ],
      [
        "Ġpl",
        "u"
      ],
      [
        "Ġprop",
        "or"
      ],
      [
        "Ġsenti",
        "ments"
      ],
      [
        "i",
        "ble"
      ],
      [
        "Ġc",
        "ol"
      ],
      [
        "el",
        "opp"
      ],
      [
        "Ġpl",
        "ain"
      ],
      [
        "Ġg",
        "ouvernement"
      ],
      [
        "ĠdÃ©",
        "m"
      ],
      [
        "Ġre",
        "cher"
      ],
      [
        "av",
        "oit"
      ],
      [
        "Ġfait",
        "s"
      ],
      [
        "ul",
        "t"
      ],
      [
        "Ã¢",
        "ge"
      ],
      [
        "Ġjus",
        "te"
      ],
      [
        "ĠgÃ©nÃ©ra",
        "l"
      ],
      [
        "Ġag",
        "rÃ©"
      ],
      [
        "osi",
        "tion"
      ],
      [
        ".",
        "\""
      ],
      [
        "c",
        "Ã¨s"
      ],
      [
        "r",
        "oient"
      ],
      [
        "y",
        "si"
      ],
      [
        "Ġc",
        "Ã´"
      ],
      [
        "Ġt",
        "ard"
      ],
      [
        "Ġf",
        "it"
      ],
      [
        "Ġv",
        "ers"
      ],
      [
        "ve",
        "z"
      ],
      [
        "ĠQu",
        "el"
      ],
      [
        "Ã©p",
        "ar"
      ],
      [
        "Ġsujet",
        "s"
      ],
      [
        "Ġmouve",
        "ment"
      ],
      [
        "v",
        "in"
      ],
      [
        "Ġs",
        "or"
      ],
      [
        "Ġpr",
        "Ãª"
      ],
      [
        "ĠÃ©",
        "d"
      ],
      [
        "Ġse",
        "xe"
      ],
      [
        "Ġe",
        "mb"
      ],
      [
        "Ġin",
        "ut"
      ],
      [
        "Ġtr",
        "ois"
      ],
      [
        "Ġo",
        "ff"
      ],
      [
        "av",
        "ois"
      ],
      [
        "di",
        "re"
      ],
      [
        "Ġrais",
        "ons"
      ],
      [
        "Ġconn",
        "oÃ®tre"
      ],
      [
        "Ġjus",
        "tice"
      ],
      [
        "ob",
        "jet"
      ],
      [
        "titu",
        "de"
      ],
      [
        "Ġmont",
        "rer"
      ],
      [
        "Ġgu",
        "Ã¨re"
      ],
      [
        "ĠlÃ©g",
        "isl"
      ],
      [
        "Ġdemand",
        "e"
      ],
      [
        "cien",
        "ce"
      ],
      [
        "e",
        "Ã»t"
      ],
      [
        "i",
        "vers"
      ],
      [
        "v",
        "i"
      ],
      [
        "v",
        "ation"
      ],
      [
        "en",
        "nent"
      ],
      [
        "Ã©",
        "le"
      ],
      [
        "Ġt",
        "a"
      ],
      [
        "Ġlong",
        "temps"
      ],
      [
        "Ġpens",
        "er"
      ],
      [
        "avant",
        "age"
      ],
      [
        "ĠRÃ©publi",
        "que"
      ],
      [
        "c",
        "le"
      ],
      [
        "c",
        "iens"
      ],
      [
        "o",
        "d"
      ],
      [
        "Ġpar",
        "aÃ®t"
      ],
      [
        "Ġpour",
        "tant"
      ],
      [
        "Ġi",
        "gn"
      ],
      [
        "Ġpro",
        "gr"
      ],
      [
        "Ġmal",
        "grÃ©"
      ],
      [
        "Ġcor",
        "r"
      ],
      [
        "Ġmont",
        "re"
      ],
      [
        "Ġprogr",
        "Ã¨s"
      ],
      [
        "f",
        "ai"
      ],
      [
        "s",
        "ances"
      ],
      [
        "t",
        "us"
      ],
      [
        "Ġt",
        "end"
      ],
      [
        "ti",
        "er"
      ],
      [
        "in",
        "es"
      ],
      [
        "Ġb",
        "ras"
      ],
      [
        "ar",
        "ras"
      ],
      [
        "ĠC",
        "el"
      ],
      [
        "Ã©t",
        "ab"
      ],
      [
        "Ġvi",
        "ol"
      ],
      [
        "ĠA",
        "l"
      ],
      [
        "Ġcar",
        "ac"
      ],
      [
        "Ġpau",
        "vre"
      ],
      [
        ".",
        "*"
      ],
      [
        "n",
        "Ã©e"
      ],
      [
        "Ġd",
        "om"
      ],
      [
        "er",
        "ce"
      ],
      [
        "Ġn",
        "Ã©g"
      ],
      [
        "Ġf",
        "ils"
      ],
      [
        "Ġv",
        "a"
      ],
      [
        "li",
        "c"
      ],
      [
        "Ġli",
        "vre"
      ],
      [
        "Ġfor",
        "m"
      ],
      [
        "Ġgr",
        "os"
      ],
      [
        "Ġob",
        "Ã©"
      ],
      [
        "Ġanim",
        "aux"
      ],
      [
        "ĠdÃ©v",
        "elopp"
      ],
      [
        "Ġgen",
        "re"
      ],
      [
        "e",
        "ce"
      ],
      [
        "Ġs",
        "ang"
      ],
      [
        "Ġpa",
        "re"
      ],
      [
        "or",
        "me"
      ],
      [
        "Ġpr",
        "Ã¨s"
      ],
      [
        "ar",
        "de"
      ],
      [
        "im",
        "agin"
      ],
      [
        "Ġemp",
        "Ãª"
      ],
      [
        "min",
        "istra"
      ],
      [
        "Ġjeunes",
        "se"
      ],
      [
        "Ġt",
        "oi"
      ],
      [
        "Ġv",
        "ille"
      ],
      [
        "li",
        "tÃ©"
      ],
      [
        "aut",
        "ant"
      ],
      [
        "ĠS",
        "Ã©nat"
      ],
      [
        "Ġcon",
        "di"
      ],
      [
        "Ġser",
        "t"
      ],
      [
        "Ġfait",
        "es"
      ],
      [
        "Ġgrand",
        "es"
      ],
      [
        "Ġcit",
        "oyen"
      ],
      [
        "att",
        "a"
      ],
      [
        "Ġsui",
        "vre"
      ],
      [
        "Ġresp",
        "ec"
      ],
      [
        "Ġprod",
        "uit"
      ],
      [
        "honn",
        "eur"
      ],
      [
        "Ġp",
        "Ã©n"
      ],
      [
        "Ġt",
        "y"
      ],
      [
        "Ġle",
        "Ã§ons"
      ],
      [
        "our",
        "ce"
      ],
      [
        "Ġun",
        "s"
      ],
      [
        "ar",
        "gent"
      ],
      [
        "ĠdÃ©",
        "d"
      ],
      [
        "Ġin",
        "t"
      ],
      [
        "Ġdev",
        "ant"
      ],
      [
        "Ġob",
        "serv"
      ],
      [
        "Ġrest",
        "er"
      ],
      [
        "Ġoc",
        "cup"
      ],
      [
        "Ġd",
        "Ã¨s"
      ],
      [
        "Ġa",
        "j"
      ],
      [
        "Ġm",
        "u"
      ],
      [
        "Ġt",
        "ent"
      ],
      [
        "Ã¨",
        "le"
      ],
      [
        "Ġpas",
        "se"
      ],
      [
        "Ġri",
        "che"
      ],
      [
        "ĠE",
        "tat"
      ],
      [
        "Ġver",
        "tus"
      ],
      [
        "ĠnÃ©ces",
        "sitÃ©"
      ],
      [
        "Ġpropor",
        "tion"
      ],
      [
        "t",
        "Ã´t"
      ],
      [
        "au",
        "c"
      ],
      [
        "Ġpas",
        "s"
      ],
      [
        "Ġch",
        "anger"
      ],
      [
        "and",
        "is"
      ],
      [
        "Ġcomm",
        "une"
      ],
      [
        "Ġco",
        "eurs"
      ],
      [
        "Ġprop",
        "res"
      ],
      [
        "Ġconn",
        "aÃ®t"
      ],
      [
        "Ġfer",
        "a"
      ],
      [
        "Ġconv",
        "en"
      ],
      [
        "Ġsuff",
        "it"
      ],
      [
        "Ġmor",
        "ale"
      ],
      [
        "Ġfau",
        "te"
      ],
      [
        "Ġprincip",
        "e"
      ],
      [
        "a",
        "prÃ¨s"
      ],
      [
        "Ġs",
        "ol"
      ],
      [
        "Ġm",
        "oindre"
      ],
      [
        "Ġf",
        "our"
      ],
      [
        "Ġpour",
        "roit"
      ],
      [
        "ĠdÃ©",
        "ter"
      ],
      [
        "Ġo",
        "pp"
      ],
      [
        "ul",
        "te"
      ],
      [
        "Ġcont",
        "ent"
      ],
      [
        "Ã¢",
        "che"
      ],
      [
        "Ġgu",
        "erre"
      ],
      [
        "Ġus",
        "age"
      ],
      [
        "ĠdÃ©sir",
        "s"
      ],
      [
        "a",
        "yant"
      ],
      [
        "c",
        "on"
      ],
      [
        "Ġp",
        "un"
      ],
      [
        "Ġp",
        "eur"
      ],
      [
        "Ġs",
        "yst"
      ],
      [
        "Ġa",
        "isÃ©ment"
      ],
      [
        "eu",
        "ses"
      ],
      [
        "Ġen",
        "g"
      ],
      [
        "Ġr",
        "a"
      ],
      [
        "ĠÃ©",
        "cl"
      ],
      [
        "Ã©t",
        "ois"
      ],
      [
        "Ġvi",
        "ces"
      ],
      [
        "Ġrais",
        "onne"
      ],
      [
        "ist",
        "ance"
      ],
      [
        "ist",
        "oire"
      ],
      [
        "mÃ©",
        "di"
      ],
      [
        "Ġai",
        "me"
      ],
      [
        "Ġpen",
        "se"
      ],
      [
        "Ġret",
        "our"
      ],
      [
        "Ġrepr",
        "Ã©s"
      ],
      [
        "ĠconsÃ©qu",
        "ent"
      ],
      [
        "Ġmeill",
        "eur"
      ],
      [
        "Ġmaxi",
        "mes"
      ],
      [
        "Ġpor",
        "tÃ©e"
      ],
      [
        "Ġs",
        "ommes"
      ],
      [
        "Ġt",
        "enir"
      ],
      [
        "Ġf",
        "asse"
      ],
      [
        "Ġpar",
        "v"
      ],
      [
        "Ġpr",
        "ati"
      ],
      [
        "ĠÃ©",
        "ch"
      ],
      [
        "op",
        "inion"
      ],
      [
        "ort",
        "er"
      ],
      [
        "Ġli",
        "vres"
      ],
      [
        "ĠrÃ©",
        "un"
      ],
      [
        "Ã§",
        "on"
      ],
      [
        "ĠÃ©g",
        "alement"
      ],
      [
        "Ġcert",
        "ain"
      ],
      [
        "ĠPol",
        "o"
      ],
      [
        "Ġlu",
        "mi"
      ],
      [
        "i",
        "end"
      ],
      [
        "l",
        "ais"
      ],
      [
        "u",
        "d"
      ],
      [
        "v",
        "al"
      ],
      [
        "Ġa",
        "yant"
      ],
      [
        "Ġv",
        "ue"
      ],
      [
        "Ã¨",
        "ne"
      ],
      [
        "Ġg",
        "l"
      ],
      [
        "ien",
        "ne"
      ],
      [
        "ie",
        "z"
      ],
      [
        "Ġou",
        "bli"
      ],
      [
        "Ġex",
        "am"
      ],
      [
        "Ġfor",
        "mer"
      ],
      [
        "Ġdonn",
        "Ã©"
      ],
      [
        "Ġconv",
        "ient"
      ],
      [
        "Ġins",
        "titu"
      ],
      [
        "Ġpart",
        "out"
      ],
      [
        "Ġindi",
        "vid"
      ],
      [
        "Ġprincip",
        "es"
      ],
      [
        "Ġimpos",
        "sible"
      ],
      [
        "ĠcÃ´",
        "tÃ©"
      ],
      [
        "ĠPolo",
        "gne"
      ],
      [
        "en",
        "oit"
      ],
      [
        "Ġv",
        "in"
      ],
      [
        "ti",
        "ques"
      ],
      [
        "Ġen",
        "se"
      ],
      [
        "Ġfai",
        "bles"
      ],
      [
        "Ġex",
        "ac"
      ],
      [
        "ĠEn",
        "fin"
      ],
      [
        "ati",
        "ve"
      ],
      [
        "ĠÃ©g",
        "ard"
      ],
      [
        "ĠsÃ»",
        "re"
      ],
      [
        "Ġaim",
        "er"
      ],
      [
        "ĠÃ©tab",
        "li"
      ],
      [
        "Ġmalh",
        "eureux"
      ],
      [
        "n",
        "ous"
      ],
      [
        "Ġc",
        "ulti"
      ],
      [
        "ai",
        "mer"
      ],
      [
        "Ġt",
        "elle"
      ],
      [
        "Ġt",
        "Ã©m"
      ],
      [
        "Ġv",
        "it"
      ],
      [
        "Ġr",
        "ang"
      ],
      [
        "Ġb",
        "out"
      ],
      [
        "Ġpl",
        "aÃ®t"
      ],
      [
        "ar",
        "b"
      ],
      [
        "Ġg",
        "ag"
      ],
      [
        "Ġmais",
        "on"
      ],
      [
        "Ġsau",
        "v"
      ],
      [
        "Ġserv",
        "i"
      ],
      [
        "Ġfac",
        "ile"
      ],
      [
        "Ġche",
        "fs"
      ],
      [
        "eff",
        "et"
      ],
      [
        "c",
        "tions"
      ],
      [
        "d",
        "it"
      ],
      [
        "l",
        "eur"
      ],
      [
        "r",
        "Ã©e"
      ],
      [
        "Ġa",
        "fin"
      ],
      [
        "Ġt",
        "ris"
      ],
      [
        "Ġf",
        "us"
      ],
      [
        "Ġv",
        "rais"
      ],
      [
        "ri",
        "n"
      ],
      [
        "ui",
        "ts"
      ],
      [
        "Ġun",
        "ique"
      ],
      [
        "Ġli",
        "v"
      ],
      [
        "Ġent",
        "endre"
      ],
      [
        "Ġsoci",
        "al"
      ],
      [
        "Ġsec",
        "ond"
      ],
      [
        "Ġes",
        "clav"
      ],
      [
        "Ġnour",
        "ri"
      ],
      [
        "exp",
        "Ã©rience"
      ],
      [
        "Ġresp",
        "ect"
      ],
      [
        "ministra",
        "tion"
      ],
      [
        "e",
        "re"
      ],
      [
        "u",
        "res"
      ],
      [
        "Ġm",
        "Ã©d"
      ],
      [
        "Ġt",
        "Ã´t"
      ],
      [
        "Ġen",
        "v"
      ],
      [
        "Ġau",
        "gment"
      ],
      [
        "Ġdu",
        "rant"
      ],
      [
        "ure",
        "r"
      ],
      [
        "di",
        "tÃ©"
      ],
      [
        "Ġvi",
        "v"
      ],
      [
        "Ã´",
        "tre"
      ],
      [
        "Ġdev",
        "enir"
      ],
      [
        "Ġprop",
        "os"
      ],
      [
        "Ġso",
        "li"
      ],
      [
        "gu",
        "eur"
      ],
      [
        "Ġparticuli",
        "Ã¨re"
      ],
      [
        "Ġinc",
        "on"
      ],
      [
        "Ġremp",
        "lir"
      ],
      [
        "v",
        "u"
      ],
      [
        "Ġs",
        "ouver"
      ],
      [
        "Ġm",
        "ulti"
      ],
      [
        "Ã¨",
        "rent"
      ],
      [
        "at",
        "eur"
      ],
      [
        "ir",
        "ent"
      ],
      [
        "am",
        "ment"
      ],
      [
        "oy",
        "er"
      ],
      [
        "Ã©r",
        "ence"
      ],
      [
        "Ã©ra",
        "tions"
      ],
      [
        "Ã§",
        "oit"
      ],
      [
        "ĠÃ©l",
        "oign"
      ],
      [
        "Ġsau",
        "roit"
      ],
      [
        "Ġph",
        "ysi"
      ],
      [
        "Ġfais",
        "ant"
      ],
      [
        "Ġsouff",
        "rir"
      ],
      [
        "Ġfaud",
        "roit"
      ],
      [
        "habit",
        "ude"
      ],
      [
        "Ġmulti",
        "p"
      ],
      [
        "o",
        "Ã¹"
      ],
      [
        "Ġd",
        "ange"
      ],
      [
        "Ġp",
        "le"
      ],
      [
        "Ġs",
        "uit"
      ],
      [
        "ou",
        "x"
      ],
      [
        "an",
        "ti"
      ],
      [
        "Ġv",
        "eu"
      ],
      [
        "Ġdou",
        "x"
      ],
      [
        "ĠrÃ©f",
        "lex"
      ],
      [
        "Ãī",
        "tat"
      ],
      [
        "Ġsages",
        "se"
      ],
      [
        "e",
        "ment"
      ],
      [
        "l",
        "ant"
      ],
      [
        "t",
        "ent"
      ],
      [
        "t",
        "ra"
      ],
      [
        "Ġc",
        "uri"
      ],
      [
        "Ġa",
        "ir"
      ],
      [
        "il",
        "ler"
      ],
      [
        "us",
        "te"
      ],
      [
        "li",
        "quer"
      ],
      [
        "am",
        "bre"
      ],
      [
        "Ġsur",
        "p"
      ],
      [
        "aut",
        "rui"
      ],
      [
        "av",
        "ec"
      ],
      [
        "Ġma",
        "ti"
      ],
      [
        "Ġcont",
        "rain"
      ],
      [
        "ĠQ",
        "ui"
      ],
      [
        "Ġpuis",
        "que"
      ],
      [
        "ur",
        "op"
      ],
      [
        "Ġac",
        "tions"
      ],
      [
        "Ã©ra",
        "ble"
      ],
      [
        "Ġatt",
        "end"
      ],
      [
        "ĠPour",
        "quoi"
      ],
      [
        "v",
        "Ã©n"
      ],
      [
        "en",
        "us"
      ],
      [
        "Ġt",
        "able"
      ],
      [
        "Ġav",
        "oient"
      ],
      [
        "ĠC",
        "om"
      ],
      [
        "ort",
        "s"
      ],
      [
        "Ġaut",
        "our"
      ],
      [
        "gn",
        "er"
      ],
      [
        "ĠT",
        "ous"
      ],
      [
        "Ġfort",
        "une"
      ],
      [
        "Ġcarac",
        "t"
      ],
      [
        "Ġp",
        "ai"
      ],
      [
        "Ġp",
        "ure"
      ],
      [
        "qu",
        "elles"
      ],
      [
        "Ġm",
        "ou"
      ],
      [
        "tÃ©",
        "res"
      ],
      [
        "ĠC",
        "ar"
      ],
      [
        "Ġtr",
        "an"
      ],
      [
        "ex",
        "emp"
      ],
      [
        "onc",
        "er"
      ],
      [
        "Ġper",
        "dre"
      ],
      [
        "Ġman",
        "iere"
      ],
      [
        "Ġsien",
        "ne"
      ],
      [
        "Ġsit",
        "Ã´t"
      ],
      [
        "ĠmÃ©t",
        "h"
      ],
      [
        "ĠÃ©d",
        "ucation"
      ],
      [
        "ĠAl",
        "ors"
      ],
      [
        "h",
        "Ã©"
      ],
      [
        "h",
        "istoire"
      ],
      [
        "er",
        "es"
      ],
      [
        "Ġv",
        "al"
      ],
      [
        "ti",
        "ens"
      ],
      [
        "ri",
        "tÃ©"
      ],
      [
        "Ġj",
        "eux"
      ],
      [
        "Ġb",
        "ons"
      ],
      [
        "Ġb",
        "onnes"
      ],
      [
        "au",
        "rois"
      ],
      [
        "Ġg",
        "ard"
      ],
      [
        "li",
        "citÃ©"
      ],
      [
        "Ã©t",
        "ant"
      ],
      [
        "Ġenf",
        "an"
      ],
      [
        "Ġob",
        "ser"
      ],
      [
        "Ġrais",
        "onn"
      ],
      [
        "Ġac",
        "te"
      ],
      [
        "ob",
        "Ã©"
      ],
      [
        "ail",
        "leurs"
      ],
      [
        "Ġan",
        "ciens"
      ],
      [
        "Ġab",
        "us"
      ],
      [
        "Ġvoy",
        "ant"
      ],
      [
        "Ġsimp",
        "les"
      ],
      [
        "ĠÃ©tr",
        "ang"
      ],
      [
        "Ġdern",
        "ier"
      ],
      [
        "ĠmÃ©p",
        "ris"
      ],
      [
        "Ġty",
        "ran"
      ],
      [
        "Ġl",
        "ors"
      ],
      [
        "qu",
        "Ã©"
      ],
      [
        "Ġm",
        "in"
      ],
      [
        "Ġm",
        "ili"
      ],
      [
        "Ġf",
        "eu"
      ],
      [
        "ri",
        "se"
      ],
      [
        "in",
        "stant"
      ],
      [
        "and",
        "e"
      ],
      [
        "Ġson",
        "ge"
      ],
      [
        "ĠrÃ©",
        "v"
      ],
      [
        "ĠÃª",
        "tres"
      ],
      [
        "ĠM",
        "on"
      ],
      [
        "ex",
        "er"
      ],
      [
        "Ġcomp",
        "ar"
      ],
      [
        "enf",
        "ance"
      ],
      [
        "Ġaff",
        "ec"
      ],
      [
        "ĠdÃ©f",
        "aut"
      ],
      [
        "Ġsouver",
        "aine"
      ],
      [
        "Ġmultip",
        "li"
      ],
      [
        "c",
        "ent"
      ],
      [
        "l",
        "a"
      ],
      [
        "t",
        "ance"
      ],
      [
        "Ġm",
        "en"
      ],
      [
        "Ġm",
        "Ãª"
      ],
      [
        "ĠÃ©",
        "cou"
      ],
      [
        "Ġsa",
        "vent"
      ],
      [
        "Ã§",
        "ois"
      ],
      [
        "ĠQu",
        "oi"
      ],
      [
        "Ġavant",
        "age"
      ],
      [
        "uc",
        "tion"
      ],
      [
        "Ġam",
        "our"
      ],
      [
        "Ġconser",
        "vation"
      ],
      [
        "Ġindi",
        "ff"
      ],
      [
        "Ġcond",
        "uite"
      ],
      [
        "a",
        "de"
      ],
      [
        "r",
        "ons"
      ],
      [
        "Ġs",
        "c"
      ],
      [
        "Ġn",
        "aÃ®tre"
      ],
      [
        "Ġf",
        "rÃ©"
      ],
      [
        "in",
        "aire"
      ],
      [
        "Ġau",
        "quel"
      ],
      [
        "is",
        "sant"
      ],
      [
        "res",
        "sion"
      ],
      [
        "ĠL",
        "A"
      ],
      [
        "Ġri",
        "s"
      ],
      [
        "Ġex",
        "i"
      ],
      [
        "ĠrÃ©",
        "d"
      ],
      [
        "ur",
        "ent"
      ],
      [
        "Ġpouv",
        "oit"
      ],
      [
        "ĠDi",
        "Ã¨te"
      ],
      [
        "ĠmÃ©",
        "m"
      ],
      [
        "Ġsembl",
        "able"
      ],
      [
        "ĠlÃ©g",
        "i"
      ],
      [
        "Ġrep",
        "os"
      ],
      [
        "met",
        "tre"
      ],
      [
        "con",
        "que"
      ],
      [
        "b",
        "ilitÃ©"
      ],
      [
        "f",
        "i"
      ],
      [
        "Ġ",
        "erreur"
      ],
      [
        "en",
        "n"
      ],
      [
        "qu",
        "ent"
      ],
      [
        "Ġr",
        "ob"
      ],
      [
        "Ġpas",
        "sion"
      ]
    ]
  }
}